/**
  ******************************************************************************
  * @file    network_data_params.c
  * @author  AST Embedded Analytics Research Platform
  * @date    Wed Jun 12 23:43:09 2024
  * @brief   AI Tool Automatic Code Generator for Embedded NN computing
  ******************************************************************************
  * Copyright (c) 2024 STMicroelectronics.
  * All rights reserved.
  *
  * This software is licensed under terms that can be found in the LICENSE file
  * in the root directory of this software component.
  * If no LICENSE file comes with this software, it is provided AS-IS.
  ******************************************************************************
  */

#include "network_data_params.h"


/**  Activations Section  ****************************************************/
ai_handle g_network_activations_table[1 + 2] = {
  AI_HANDLE_PTR(AI_MAGIC_MARKER),
  AI_HANDLE_PTR(NULL),
  AI_HANDLE_PTR(AI_MAGIC_MARKER),
};




/**  Weights Section  ********************************************************/
AI_ALIGNED(32)
const ai_u64 s_network_weights_array_u64[166763] = {
  0xbdb07292bea51cb3U, 0xbdc8417d3e292b04U, 0x3ddd1a8d3de2ff80U, 0x3e0fc152bce6cce6U,
  0x3d23a4db3db75b27U, 0xbd38b5d23e28b3d4U, 0x3d39ae78be95f501U, 0xbebd91b73e8c2c1dU,
  0x3e7d2b8bbd74e55bU, 0x3dbcc9593c0698fbU, 0x3cf74d633eb1d449U, 0x3b8a9229be29cd94U,
  0xbe039814be7f82c4U, 0xbe2258eabea69203U, 0x3da9062dbe75ae62U, 0xbdf08704be85f431U,
  0xbe9d25253e81c4e0U, 0x3e424865bd72fb5dU, 0x3ddd0df3bcc54666U, 0x3d825ce83ea128d3U,
  0x3d8bf529bdfa425dU, 0xbe863133be8955c9U, 0x3cdf04f33dd6bff1U, 0xbed948d9be2f0191U,
  0x3deff2d13c638697U, 0xbccaeacdbe145744U, 0x3e81e08f3ea1e414U, 0xbe1805673de80ba0U,
  0xbe01f2febea7ed4aU, 0x3ce44779bee8a98bU, 0xbca344dabef7f0a8U, 0x3d547b933df7368aU,
  0xbeb52525beb1935bU, 0xbd98d1a43e6572e6U, 0x3eece3f5be76637bU, 0x3d11fbca3e435713U,
  0xbe3757d93dd705a3U, 0x3e22bb75be4a6289U, 0x3e2c56a23e80376fU, 0xbcfe1932be306c10U,
  0x3d3b20803db03eb2U, 0x3cb42331bc239768U, 0xbd260fa6bcf3dacaU, 0x3c5139933da32c6bU,
  0xbdefc3503d67b9e5U, 0x3d26bb683da778beU, 0xbcad1068bd8e5487U, 0x3e4c38403e1194e2U,
  0x3da214d03ddc1eccU, 0xbe9bf058bde259f8U, 0x3d826b5fbd256517U, 0x3e6407603db0472fU,
  0x3d971dbd3e2c0fdcU, 0xbd8a68ca3e2de800U, 0x3e97169f3da01ea4U, 0xbe8609d13e9ce772U,
  0x3d042af5be1c3ae3U, 0xbeaacf4abdb378acU, 0x3d897b6cbe0ab2b7U, 0x3decd1cfbd25ad5cU,
  0x3e5ecfbfbd4d2472U, 0x3c955930bce2b687U, 0xbe596e913e0199adU, 0xbe028967be240973U,
  0xbdbd03543e2a0cebU, 0x3e2ad3683e520253U, 0x3e1434033dd13a57U, 0xbdeaad3ebe80deecU,
  0x3e1736763da2c8dcU, 0x3e8140573e88473dU, 0xbd28c2febde95756U, 0xbeae40a2be88d1c2U,
  0x3e295ef23dbe9630U, 0x3e1ec3d8bd9cfac3U, 0xbe066e29bcc992c8U, 0xbd04b0f83dd7c14dU,
  0x3d9e4cb9bde4be7cU, 0x3de5cd6d3d481b2aU, 0x3cd673103e0f986fU, 0x3d67d6dc3b9b681cU,
  0x3dbea68c3d0f8934U, 0x3de2be9f3c775ce8U, 0xbcaeb83c3e2cf2bdU, 0x3e5b7f3d3e656e1bU,
  0xbec9562abeb00475U, 0xbdbe879dbd68e95cU, 0x3e30229bbdb795f5U, 0xbd1775cdbe95a8b7U,
  0xbdea01dd3d7f8c45U, 0x3e7d9e823de25bbeU, 0xbe884853be8ac0ddU, 0xbd976855be761834U,
  0x3bc937a43cd8fc26U, 0x3dbed70c3eaad711U, 0x3e9c41a83e3478cfU, 0x3dec6b513e9d7fb7U,
  0xbc139bc83e89b48bU, 0xbe7ccc5ebe2dc1c0U, 0xbe290a43beeaa0dcU, 0x3e6eff263dbec2deU,
  0xbdeb45b23e2cfb91U, 0x3db8a7943e0a3a4dU, 0xbe9d1b50be9f2cd9U, 0xbe99b93cbe9df037U,
  0x3eb4014ebcf35e78U, 0xbe30692dbeab1e8bU, 0x3d209c093e83f916U, 0xbd2241b1be0a9535U,
  0xbe84b6333e451b40U, 0x3e99e01dbebbc599U, 0xbd564d67bd9a7d6bU, 0x3df0e7e33e1df21cU,
  0xbd2ab8163e1c1776U, 0xbdd98ee6bdd74cdbU, 0x3e66285d3b5ca90bU, 0x3d3570143e2b6a05U,
  0xbe3bb30dbe075d9aU, 0x3bdb047c3d3ca3c8U, 0xbe4fb8163e02beb3U, 0xbc8e784d3dfc7182U,
  0x3dd0f20dbce5d69aU, 0x3dc4e48e3df78819U, 0x3cdd0cfbbe152657U, 0xbe2d961dbe885918U,
  0x3d97c253bd8cd718U, 0x3e9b5dca3dbca222U, 0x3d940a2a3e01ae15U, 0x3e0919bdbdcd311eU,
  0xbe7880203e31eac2U, 0x3be82b913e74b5f4U, 0xbc8d748ebebf52baU, 0xbea8a38c3e1105a5U,
  0x3e145bc33dc4847aU, 0x3e878db0bee0f33eU, 0xbdd380dc3e889b51U, 0xbed3509dbe007015U,
  0x3e3738d5be3ee032U, 0x3e49b60d3e1a8b95U, 0x3e24fc643c1180cbU, 0xbec43c91bb21a207U,
  0x3c8a1977be4e966dU, 0x39bf84d4bea75f03U, 0xbe1eda203e5a0b93U, 0x3e78ffae3ddf2210U,
  0xbd6c7a48bddfd8ddU, 0xbb1d886ebc41d13bU, 0xbc01c19dbd4d2758U, 0x3d1a63633e646001U,
  0xbe03efd8be04054bU, 0xbe1811abbe04ebb9U, 0xbdc0f5f4bbeacc0dU, 0xbcb1ba2dbe07b739U,
  0xbe35977abdf77b30U, 0xbccd0063bcf7df4aU, 0x3ce35b643cf22054U, 0x3b5311bcbc9a91e9U,
  0x3c04eff8bde3a11cU, 0xbcd80fb7be13a92eU, 0xbc83a7bdbd6e59ddU, 0xbc405a21bca3795aU,
  0x3de32fffbc977554U, 0x3d540aa9be3d52aaU, 0xbdbd52aa3dd40aa9U, 0xbd8fe2aabd269aaaU,
  0xbde32fffbd9f07ffU, 0x3d725554bc977554U, 0xbbf25554bda69aaaU, 0x3cd40aa9bcb5bfffU,
  0xbe00bd55bd177554U, 0x3dc4e554bdcc77ffU, 0xbd540aa9bd084fffU, 0xbd35bfffbdb5bfffU,
  0xbda69aaa3d540aa9U, 0xbc725554bd884fffU, 0xbb7255543d540aa9U, 0x3d084fff3d632fffU,
  0x3df9e7fe00000000U, 0x3cb5bfffbe8c1954U, 0xbe5041543cb5bfffU, 0xbef070a93d9f07ffU,
  0x3d269aaabdb5bfffU, 0x3d35bfffbd44e554U, 0xbc977554be91c754U, 0x3d1775543d177554U,
  0x3dc4e554bd977554U, 0x3c725554be22d154U, 0xbe66f9543d269aaaU, 0x3c977554be632fffU,
  0x3cd40aa9be7db154U, 0x3b7255543d177554U, 0xbdeac2a9be2a63ffU, 0x3e00bd55bdcc77ffU,
  0xbe31f6aa3c977554U, 0x3df9e7fe3cd40aa9U, 0xbe9959ffbe35bfffU, 0xbe57d3ffbd177554U,
  0x3dae2d54bdcc77ffU, 0x3da69aaa3dae2d54U, 0x3cd40aa93bf25554U, 0x3e22d1543e0fe2aaU,
  0xbcb5bfff3ddb9d54U, 0xbda69aaabe57d3ffU, 0x3e44e554be411bffU, 0xbbf25554bc725554U,
  0x3e13abffbdeac2a9U, 0xbc725554bd9f07ffU, 0xbc7255543d540aa9U, 0xbc35bfff3bf25554U,
  0xbd884fff3cf25554U, 0x3e084fffbe269aaaU, 0xbdf25554bcd40aa9U, 0xbe57d3ffbd35bfffU,
  0xbd540aa9bd540aa9U, 0x3cb5bfffbdc4e554U, 0xbd9f07ffbe177554U, 0xbe00bd55bd725554U,
  0x3c35bfff00000000U, 0x3dc4e554be0fe2aaU, 0xbd269aaabde32fffU, 0x3cb5bfffbe22d154U,
  0xbdcc77ffbda69aaaU, 0xbd9f07ff3d884fffU, 0xbdd40aa93c977554U, 0xbb725554bd632fffU,
  0x3dae2d543d725554U, 0x3e2a63ffbe0fe2aaU, 0xbe31f6aabd269aaaU, 0xbe0486aa3cd40aa9U,
  0x3d80bd553b725554U, 0x3bf25554bc977554U, 0x3d884fffbcb5bfffU, 0x3df25554bbf25554U,
  0xbc35bfff3cf25554U, 0xbcf255543d35bfffU, 0xbd80bd55bda69aaaU, 0x3e177554bda69aaaU,
  0x3d725554be0c1954U, 0x3cf255543dae2d54U, 0xbd084fff3dd40aa9U, 0x3df25554bc725554U,
  0xbcb5bfffbdf25554U, 0xbde32fffbe31f6aaU, 0x3bf25554be82a1ffU, 0x3deac2a93cf25554U,
  0x3b7255543d269aaaU, 0xbd884fffbd977554U, 0x3cb5bfffbdf25554U, 0x3d80bd55bd80bd55U,
  0x3d084fff3da69aaaU, 0xbe0486aabe1b3eaaU, 0x3e1f07ffbd35bfffU, 0xbd44e554bda69aaaU,
  0x3b7255543e44e554U, 0x3cb5bfffbe22d154U, 0x3df9e7fe3ddb9d54U, 0xbdcc77ff3dbd52aaU,
  0xbdb5bfff3d884fffU, 0x3d177554be4c77ffU, 0xbd632fffbd977554U, 0xbe0c1954bd269aaaU,
  0xbd540aa93d632fffU, 0x3d9f07ffbd084fffU, 0xbb725554be411bffU, 0xbee32fffbd269aaaU,
  0xbd80bd55bc725554U, 0xbd725554be761ea9U, 0xbebb6dffbc977554U, 0xbdbd52aabed225ffU,
  0xbe2e2d54bddb9d54U, 0xbb725554bd884fffU, 0xbe31f6aabe0c1954U, 0x3bf255543c35bfffU,
  0xbd084fffbd725554U, 0x3e4c77ffbe0c1954U, 0xbb725554bc977554U, 0x3d632fffbe725554U,
  0xbd1775543c35bfffU, 0xbd084fffbd884fffU, 0x3d884fffbe1b3eaaU, 0xbdcc77ff3c977554U,
  0x3d8fe2aabd084fffU, 0xbd177554bda69aaaU, 0xbe540aa9be2a63ffU, 0x3deac2a9be866b55U,
  0xbd9775543d725554U, 0xbd884fffbcd40aa9U, 0x3c35bfff3dd40aa9U, 0xbdeac2a9be177554U,
  0xbdcc77ffbd9f07ffU, 0xbe8486aabdf25554U, 0x3dcc77ffbd80bd55U, 0x3df25554be3d52aaU,
  0xbc7255543d632fffU, 0xbd725554bdb5bfffU, 0xbda69aaabc977554U, 0xbdeac2a93d084fffU,
  0xbd80bd553c725554U, 0xbe084fff3d977554U, 0x3c35bfffbb725554U, 0xbcf255543d35bfffU,
  0x3dae2d543de32fffU, 0x3d632fffbddb9d54U, 0x3d9775543c725554U, 0xbe22d1543d632fffU,
  0xbe61dfcb3d1bc67aU, 0x3e13fc8ebcf93d90U, 0xbdf173a4be332440U, 0xbe5a15debcbaee2cU,
  0xbc793d90be0083beU, 0x0U, 0xbdb32440be1fab70U, 0x3e5a15de3df173a4U,
  0x3c793d90bc3aee2cU, 0xbde1dfcbbe8468b5U, 0x3d1bc67abe27755dU, 0x3d69a9b7be0c32a1U,
  0x3b793d90bcf93d90U, 0xbd1bc67abd9bc67aU, 0x3b793d90bb793d90U, 0x3cda15debd93fc8eU,
  0xbe8083bebe2f3f49U, 0xbdf173a4bdab5a53U, 0x3d0c32a1be95ef09U, 0xbd8468b5bbf93d90U,
  0xbd3aee2cbe239067U, 0xbe5a15debe27755dU, 0xbde9a9b7be65c4c1U, 0x3e3ed322be4e66fbU,
  0xbd8c32a100000000U, 0x3c9bc67abec4aa94U, 0x3e370936bdb32440U, 0xbec2b819bcda15deU,
  0xbe3ed322bcbaee2cU, 0x3e332440be8083beU, 0x3c793d90bd1bc67aU, 0xbdb32440be27755dU,
  0xbdd24bf23bf93d90U, 0xbbf93d90bead4cceU, 0x3e0468b5be0468b5U, 0x3e239067U,
  0xbd9bc67abead4cceU, 0xbdab5a53be4e66fbU, 0xbe5630e8be61dfcbU, 0xbe524bf2bcbaee2cU,
  0xbe65c4c1be5dfad4U, 0x3c793d90bee9a9b7U, 0xbe3aee2c3db32440U, 0xbe084dabbe8e251cU,
  0xbe1bc67a3d93fc8eU, 0x3e3aee2cbe370936U, 0xbd4a8205bdab5a53U, 0x3e1fab703d0c32a1U,
  0xbd9bc67abcf93d90U, 0x3c793d90be0083beU, 0x3df173a4be27755dU, 0x3e0083bebdd24bf2U,
  0x3c9bc67a3d0c32a1U, 0xbd4a82053bf93d90U, 0xbd0c32a1be0083beU, 0xbd5a15debd9bc67aU,
  0xbc3aee2c3cbaee2cU, 0xbd9bc67abd1bc67aU, 0xbde9a9b73d8c32a1U, 0x3c9bc67abd69a9b7U,
  0xbb793d903e0083beU, 0x3d5a15debcbaee2cU, 0x3d1bc67abdda15deU, 0xbd93fc8ebc3aee2cU,
  0xbdf173a4bdb32440U, 0xbd793d90be469d0fU, 0x3e13fc8ebd93fc8eU, 0x3e469d0fbe239067U,
  0xbd4a8205bc793d90U, 0x3cf93d90bd9bc67aU, 0xbcda15debde9a9b7U, 0x3df173a43dab5a53U,
  0xbcf93d90be101797U, 0xbdc2b8193dbaee2cU, 0xbda390673de1dfcbU, 0xbd3aee2cU,
  0xbbf93d90bbf93d90U, 0x3df173a4bbf93d90U, 0x3e0c32a100000000U, 0xbb793d903e13fc8eU,
  0xbc9bc67a3cf93d90U, 0x3df173a4be0083beU, 0xbb793d903dd24bf2U, 0xbcf93d90bb793d90U,
  0x3d0c32a1bd2b5a53U, 0xbdb32440bc9bc67aU, 0xbd2b5a53be0083beU, 0x3e4e66fb3dbaee2cU,
  0xbd93fc8e00000000U, 0xbc3aee2cbd793d90U, 0x3db32440bb793d90U, 0x3c793d90bdb32440U,
  0xbc9bc67abc793d90U, 0xbd9bc67abd93fc8eU, 0xbcf93d90bc793d90U, 0x3c793d903dda15deU,
  0x3bf93d90be8083beU, 0x3c9bc67a3e6d8eadU, 0xbe0c32a13d5a15deU, 0xbdb32440bd4a8205U,
  0x3d4a8205bd3aee2cU, 0xbe4a8205bb793d90U, 0xbcbaee2c3e332440U, 0xbdbaee2cbdd24bf2U,
  0xbdca8205bd793d90U, 0xbe2390673e69a9b7U, 0x3dab5a53bdf93d90U, 0x3e13fc8e3e5a15deU,
  0xbd9bc67abd9bc67aU, 0xbe7d2286bdda15deU, 0xbe61dfcbbcda15deU, 0xbe3aee2cbe0c32a1U,
  0xbde1dfcbbe524bf2U, 0xbe524bf23bf93d90U, 0xbe27755d3d0c32a1U, 0xbe1017973cbaee2cU,
  0x3b793d90bcda15deU, 0xbe101797bc793d90U, 0x3d93fc8e3dc2b819U, 0x3d3aee2cbc9bc67aU,
  0xbe3aee2c3cbaee2cU, 0xbe4a82053d2b5a53U, 0x3e3ed322be101797U, 0xbe1017973e084dabU,
  0xbbf93d90be42b819U, 0xbe827639be0c32a1U, 0xbda39067bdab5a53U, 0xbe8468b5bc793d90U,
  0x3cf93d903d8c32a1U, 0x3e3ed322bcda15deU, 0xbef74b153d8c32a1U, 0xbeaf3f49bb793d90U,
  0xbdc2b819bdab5a53U, 0xbe7173a4be3ed322U, 0xbdc2b8193c793d90U, 0x3c9bc67abe084dabU,
  0xbe69a9b7bdda15deU, 0x3d8c32a1bd2b5a53U, 0xbcbaee2cbea582e2U, 0x3dd24bf23cda15deU,
  0xbdd24bf2be7173a4U, 0x3d93fc8ebc3aee2cU, 0xbe75589abe4a8205U, 0x3d9bc67abe8a4026U,
  0x3d95356abdfe3513U, 0xbb30d702bdcc789aU, 0xbd95356a3d1abc22U, 0x3c30d702bb30d702U,
  0x3d3be4723d8a27faU, 0xbe51ff52be07649dU, 0xbdc6f1e23d9abc22U, 0xbd3be472be17f8c6U,
  0xbde81a33bd46f1e2U, 0x3cdd0cc23e0ceb56U, 0x3c30d702be1abc22U, 0x3d46f1e23de81a33U,
  0x3cdd0cc23d8faeb2U, 0xbe25c992bd51ff52U, 0xbd1abc22bd46f1e2U, 0x3d0faeb2bd46f1e2U,
  0xbd95356abbb0d702U, 0x3e442e86be95356aU, 0x3d8a27fabe5d0cc2U, 0x3e1d7f7e3cb0d702U,
  0xbc5d0cc23c9abc22U, 0xbd30d702be01dde5U, 0x3de2937abe8602efU, 0x3d25c9923d46f1e2U,
  0xbd7327a33dbbe472U, 0xbd5d0cc2U, 0xbc84a141bc9abc22U, 0x3cb0d702be365dbaU,
  0x3c30d7023d9abc22U, 0xbc9abc22bd84a141U, 0x3da5c9923dd1ff52U, 0xbbb0d7023db0d702U,
  0xbd1abc223d51ff52U, 0xbc30d702bdf327a3U, 0xbe8602efbdd7860aU, 0xbdf327a33d46f1e2U,
  0xbd3be472be392116U, 0xbe392116be681a33U, 0xbd25c992bd51ff52U, 0x3e4c789abd46f1e2U,
  0xbde2937abddd0cc2U, 0xbd30d702bd25c992U, 0x3d95356abe230636U, 0xbe0ceb56bd8faeb2U,
  0xbe15356abe51ff52U, 0xbe15356abe30d702U, 0xbe51ff52be288ceeU, 0xbd3be472bdc16b2aU,
  0x3db0d702bd7e3513U, 0x3d681a333e0ceb56U, 0xbe995a743e01dde5U, 0xbe2306363c30d702U,
  0xbd46f1e2be288ceeU, 0xbdf327a3be75eaffU, 0xbe339a5e3e6da0ebU, 0xbe30d702be230636U,
  0xbe3ea7cebe0ceb56U, 0x3d681a333e17f8c6U, 0xbdeda0ebbe3be472U, 0x3e78ae5b3cb0d702U,
  0xbd9abc22be75eaffU, 0xbe75eaff3cb0d702U, 0xbe392116bea9ee9cU, 0xbd25c992be807c37U,
  0x3e288ceebcf327a3U, 0x3bb0d7023c5d0cc2U, 0x3dab504abc04a141U, 0x3cc6f1e2bd681a33U,
  0xbd30d7023dcc789aU, 0xbcc6f1e2bdb0d702U, 0x3c04a1413e12720eU, 0xbe230636bd25c992U,
  0xbcf327a3bb30d702U, 0x3cf327a33ddd0cc2U, 0xbdd7860abe5a4966U, 0x3df327a33e0ceb56U,
  0xbc84a1413d84a141U, 0xbdc6f1e2bdeda0ebU, 0x3e0a27fa3e01dde5U, 0xbda5c992be12720eU,
  0xbe0ceb56bd5d0cc2U, 0xbdbbe47200000000U, 0x3e4f3bf6bdcc789aU, 0x3e5a4966bd95356aU,
  0xbdf327a33d25c992U, 0x3d95356abdfe3513U, 0xbe17f8c63da5c992U, 0x3bb0d7023cf327a3U,
  0xbd9abc22bdb65dbaU, 0x3bb0d702bcf327a3U, 0xbe25c9923d5d0cc2U, 0x3bb0d702bddd0cc2U,
  0xbe2042da3e78ae5bU, 0x3e46f1e2bd8faeb2U, 0x3dc6f1e2be0ceb56U, 0xbe339a5e3dcc789aU,
  0xbe807c37bdcc789aU, 0xbe07649dbc84a141U, 0xbe2e13a63c5d0cc2U, 0xbcc6f1e23d84a141U,
  0xbe1abc22be54c2aeU, 0xbe0a27fabe6add8fU, 0xbde2937a3d8faeb2U, 0xbcc6f1e2bde81a33U,
  0xbe9ee12cbe7327a3U, 0xbe12720ebd51ff52U, 0xbe12720ebdf8ae5bU, 0x3d30d7023b30d702U,
  0xbd9abc22bdd1ff52U, 0xbe04a141be392116U, 0xbe5fd01ebe92720eU, 0xbe6add8fbe6da0ebU,
  0x3e4c789abdf8ae5bU, 0x3d46f1e23e04a141U, 0xbe0ceb563e392116U, 0xbe8a27fabd51ff52U,
  0x3c9abc22bdb0d702U, 0xbeaf7554bdf327a3U, 0xbe4c789a3e07649dU, 0xbdd7860abd681a33U,
  0xbe2e13a6be3ea7ceU, 0x3d681a333dc16b2aU, 0xbd84a141be07649dU, 0x3e04a1413e339a5eU,
  0xbc9abc22be833f93U, 0xbdb65dbabd46f1e2U, 0xbdcc789abe6add8fU, 0xbe17f8c6be7b71b7U,
  0x3e3be472be0ceb56U, 0xbd25c9923e07649dU, 0x3e1abc223dfe3513U, 0x3ddd0cc2be6da0ebU,
  0x3d681a333e54c2aeU, 0xbd5d0cc23d04a141U, 0xbd7327a33e0faeb2U, 0xbd7327a3bd51ff52U,
  0xbc9abc223c5d0cc2U, 0xbd7327a33e2042daU, 0x3d04a141bcc6f1e2U, 0x3d95356a3d1abc22U,
  0x3de2937a3e3be472U, 0x3d04a1413cf327a3U, 0xbdf8ae5bbe15356aU, 0xbdcc789a3e392116U,
  0x3c8d3332be68fadfU, 0xbda970a2be50451dU, 0x3c2970a2bddadc27U, 0xbcc5ae13bd378f5bU,
  0xbd700a3bbdc5ae13U, 0xbe6c828dbdbe9eb7U, 0xbddadc27be226146U, 0xbe2970a2be61eb83U,
  0xbe2970a2be029c28U, 0xbcfe28f4be226146U, 0xbc61eb833d53cccbU, 0xbe8b6f5bbdf00a3bU,
  0xbe25e8f4bdbe9eb7U, 0x3e10bae0bd8d3332U, 0xbd61eb83bb61eb83U, 0xbdb07fffbd9b51eaU,
  0xbd2970a2bd61eb83U, 0x3d53cccbbe3e9eb7U, 0x3da26146be307fffU, 0xbce1eb833da970a2U,
  0xbe226146bd1b51eaU, 0x3b61eb83bdb07fffU, 0xbe226146be307fffU, 0xbe4935c13d2970a2U,
  0xbe1b51eabe927eb7U, 0x3ca970a2be4935c1U, 0xbe2261463d700a3bU, 0xbe3e9eb7bea970a2U,
  0xbe2970a23d45ae13U, 0x3d61eb833b61eb83U, 0xbe771998be17ca3cU, 0xbc61eb833cfe28f4U,
  0x3d7e28f43d8d3332U, 0x3da970a2be10bae0U, 0x3dbe9eb7bde8fadfU, 0xbe0d33323d53cccbU,
  0x3d53cccb3ce1eb83U, 0x3cc5ae133b61eb83U, 0x3d700a3bbe2970a2U, 0x3d7e28f43db07fffU,
  0x3d9b51eabd8623d6U, 0x3dccbd6fbe09ab84U, 0xbe8d33323e3407adU, 0x3d378f5bbe45ae13U,
  0x3d7e28f4bd0d3332U, 0x3e829c283e0623d6U, 0xbd700a3b3d7e28f4U, 0x3e25e8f43d53cccbU,
  0xbd7e28f4bdf71998U, 0x3d8623d63d378f5bU, 0xbd53cccb3d7e28f4U, 0xbda970a2bc61eb83U,
  0xbde1eb83be14428eU, 0x3c61eb83bd94428eU, 0xbdb78f5bbd7e28f4U, 0x3e17ca3c3dbe9eb7U,
  0xbd8d3332bdccbd6fU, 0xbda970a2bd8d3332U, 0x3ce1eb833d53cccbU, 0x3be1eb83bc61eb83U,
  0x3d45ae13bde8fadfU, 0x3d61eb83be17ca3cU, 0xbdc5ae13bd0d3332U, 0xbd45ae133cfe28f4U,
  0x3e2970a23dd3cccbU, 0x3e226146be5e63d5U, 0x3b61eb83be09ab84U, 0xbe14428ebd9b51eaU,
  0xbd7e28f43d378f5bU, 0xbcfe28f4bd8d3332U, 0xbce1eb83be61eb83U, 0xbce1eb83bce1eb83U,
  0xbd700a3bbdb78f5bU, 0x3ca970a2be8ef709U, 0xbde8fadf3da26146U, 0xbde8fadfbdb07fffU,
  0xbbe1eb83bc2970a2U, 0x3d61eb833da970a2U, 0xbe4cbd6fbd9b51eaU, 0x3e378f5b3db78f5bU,
  0x3d9b51ea3e09ab84U, 0x3db78f5bbe8623d6U, 0xbdb07fffbe8d3332U, 0xbe307fff3dccbd6fU,
  0x3da26146bdb78f5bU, 0x3da261463d1b51eaU, 0x3dfe28f4be7e28f4U, 0x3e5adc273db07fffU,
  0x3da261463dc5ae13U, 0x3da26146be960665U, 0xbd700a3bbde8fadfU, 0x3cfe28f4be25e8f4U,
  0x3e0623d6be45ae13U, 0xbd1b51eabc2970a2U, 0xbd7e28f43e10bae0U, 0x3e4cbd6f3de1eb83U,
  0x3e7aa146bcc5ae13U, 0x3e771998bc2970a2U, 0x3db07fffbc2970a2U, 0xbe2cf8513ce1eb83U,
  0xbc2970a23ce1eb83U, 0xbd45ae13be307fffU, 0xbd7e28f4be0623d6U, 0x3dbe9eb7bd1b51eaU,
  0xbdb78f5b3c2970a2U, 0x3e226146bddadc27U, 0x3de1eb83bd7e28f4U, 0x3ce1eb83bd8623d6U,
  0xbddadc27bdccbd6fU, 0x3da26146bd0d3332U, 0xbd378f5bbd2970a2U, 0x3e45ae133d8623d6U,
  0x3db07fff3d0d3332U, 0x3e7391eabee027acU, 0xbcfe28f4be4cbd6fU, 0xbde8fadf3d61eb83U,
  0x3de1eb83bd45ae13U, 0x3dd3cccb3c61eb83U, 0xbcc5ae13beccbd6fU, 0xbdf719983dfe28f4U,
  0x3d61eb83bd378f5bU, 0x3de1eb83be927eb7U, 0xbe53cccb3be1eb83U, 0x3dfe28f4beb95332U,
  0xbd94428ebde1eb83U, 0x3de1eb833d1b51eaU, 0xbd9b51eabc8d3332U, 0x3e5adc27bca970a2U,
  0xbea7accb3d53cccbU, 0x3d0d3332be1ed998U, 0xbe4935c1bebcdae0U, 0xbe0623d6bd700a3bU,
  0xbd2970a2be2cf851U, 0xbda970a23d94428eU, 0x3cc5ae13be8b6f5bU, 0x3d45ae13bc8d3332U,
  0xbda261463da26146U, 0xbdf71998bec935c1U, 0x3d61eb83be7aa146U, 0xbe09ab84be8d3332U,
  0xbcc5ae13bde8fadfU, 0xbd94428ebde8fadfU, 0x3d61eb833e3407adU, 0xbe029c28bde1eb83U,
  0x3d7119cfbc564fd5U, 0x3d817ae6be305c5cU, 0xbd4473d8bdfa07ceU, 0xbcc473d8bddf3dd3U,
  0xbc564fd5bd682bd1U, 0x3cc473d8bd3b85daU, 0x3dbb85dabe22f75fU, 0x3d8a68e43c8edfe3U,
  0x3d3b85da3db297dcU, 0xbd85f1e5bd3297dcU, 0x3b8edfe3be48ead7U, 0xbd9356e2be817ae6U,
  0xbc3297dc3d20bbe0U, 0xbe63b4d23d17cde1U, 0x3dc8ead73e082d65U, 0xbd4d61d7be159262U,
  0xbb8edfe3bc564fd5U, 0x3cb297dc3c564fd5U, 0xbd4473d83da9a9deU, 0xbb0edfe3bd7119cfU,
  0xbd4d61d73cfa07ceU, 0xbcfa07cebd8edfe3U, 0xbd05f1e53c564fd5U, 0xbc8edfe3bd05f1e5U,
  0x3d682bd13da532dfU, 0xbdbffcd9bc3297dcU, 0xbc3297dcbd8a68e4U, 0xbcfa07cebc7a07ceU,
  0xbc0edfe3bb0edfe3U, 0xbddf3dd3bd4d61d7U, 0x3cc473d83e0ca464U, 0xbdc8ead7bda9a9deU,
  0xbda9a9debd3297dcU, 0x3da532df00000000U, 0xbd9c44e03b8edfe3U, 0xbce82bd1bdc473d8U,
  0xbd8edfe3bd4d61d7U, 0xbd17cde1bdfe7ecdU, 0xbd97cde1bc564fd5U, 0xbda532dfbe082d65U,
  0xbd817ae63b8edfe3U, 0xbd97cde1bddf3dd3U, 0xbda9a9debe20bbe0U, 0xbd85f1e5bd17cde1U,
  0xbdbffcd9bcb297dcU, 0xbd3b85dabd682bd1U, 0x3bd64fd5bda9a9deU, 0x3cb297dc3c8edfe3U,
  0xbc7a07cebda532dfU, 0xbd05f1e53cc473d8U, 0x3d4473d8bcc473d8U, 0xbda0bbe0be588b54U,
  0x3d4d61d7bd564fd5U, 0xbc7a07ceU, 0xbd4d61d7bd7119cfU, 0xbe0edfe3bcd64fd5U,
  0x3ca0bbe0bc8edfe3U, 0xbda0bbe03dbffcd9U, 0xbdae20ddbe73554fU, 0x3d20bbe03d05f1e5U,
  0xbd29a9debc7a07ceU, 0xbd8edfe33c564fd5U, 0x3db297dc3c8edfe3U, 0xbb0edfe3be20bbe0U,
  0xbce82bd13b0edfe3U, 0xbda9a9debd17cde1U, 0x3d97cde1be1a0961U, 0x3dd1d8d6be34d35cU,
  0xbc8edfe3bd4d61d7U, 0xbcb297dcbd3297dcU, 0x3cd64fd5be394a5bU, 0xbda9a9de3cc473d8U,
  0xbd29a9de3d20bbe0U, 0xbcb297dc3d4473d8U, 0xbe541455bdae20ddU, 0xbd9c44e0bdfa07ceU,
  0x3c564fd53d7a07ceU, 0xbd29a9debbd64fd5U, 0xbd17cde1bd7119cfU, 0xbdf119cf3d0edfe3U,
  0xbe394a5bbdc8ead7U, 0xbcb297dcbd9c44e0U, 0xbd8edfe3bdf119cfU, 0x3cc473d8bd7a07ceU,
  0xbddac6d4U, 0x3b0edfe3bc7a07ceU, 0xbdae20ddbdc8ead7U, 0xbe29a9debc3297dcU,
  0xbe0a68e4be1a0961U, 0xbdc473d8U, 0xbd9c44e0bca0bbe0U, 0xbda9a9debd8edfe3U,
  0xbe111b63bc0edfe3U, 0x3db70edbbe05f1e5U, 0x3b8edfe33ca0bbe0U, 0xbd7119cf3c3297dcU,
  0xbd3297dcbcd64fd5U, 0xbdeca2d0bd8a68e4U, 0xbd817ae6bd4473d8U, 0xbd29a9debe8dc223U,
  0x3d9356e2bd4d61d7U, 0xbd05f1e5bd9c44e0U, 0xbe082d65bd4d61d7U, 0xbe2532df3d564fd5U,
  0xbc564fd53d05f1e5U, 0xbda9a9debe05f1e5U, 0xbe29a9debcc473d8U, 0x3ddf3dd3bddf3dd3U,
  0xbdbb85dabd4473d8U, 0x3cb297dc3cb297dcU, 0xbd20bbe0bd0edfe3U, 0xbe111b633ce82bd1U,
  0xbdbffcd9bd3297dcU, 0xbe29a9debd29a9deU, 0x3ddf3dd33da532dfU, 0x3d85f1e5be6a6751U,
  0xbcc473d83d8a68e4U, 0x3bd64fd53ca0bbe0U, 0xbc3297dc3d85f1e5U, 0xbd5f3dd3bda532dfU,
  0x3d05f1e53d20bbe0U, 0xbe29a9de3d05f1e5U, 0xbdcd61d7bd17cde1U, 0xbc8edfe3bd7119cfU,
  0x3d817ae6bd7119cfU, 0xbda9a9de3b0edfe3U, 0x3d17cde1bda9a9deU, 0xbe564fd53d817ae6U,
  0xbc3297dcbb8edfe3U, 0xbbd64fd5bca0bbe0U, 0x3e159262bce82bd1U, 0x3ca0bbe0be51d8d6U,
  0xbd9c44e03b0edfe3U, 0x3dae20ddbdbb85daU, 0x3d05f1e53dc473d8U, 0xbdcd61d73d7119cfU,
  0xbb0edfe3bc3297dcU, 0x3bd64fd5bd817ae6U, 0xbdbb85da3e05f1e5U, 0xbd682bd1U,
  0x3d7119cf3dc473d8U, 0xbcd64fd5bca0bbe0U, 0xbc0edfe3bb0edfe3U, 0xbdc473d83e05f1e5U,
  0x3e0c48843dc5ac00U, 0x3d58cd2abe658df0U, 0x3de58df03d85e821U, 0xbe6f1e853c19094bU,
  0x3c7f0f7cbc19094bU, 0xbbcc0c643dbf4b9dU, 0xbd9f69aebdb8eb3aU, 0xbe19094b3e0f78b6U,
  0x3dd26cc7bd58cd2aU, 0x3e02b7f03d328ad7U, 0xbe625dbebd25ca11U, 0x3d58cd2abe559cf8U,
  0x3ccc0c64be02b7f0U, 0x3ccc0c643d328ad7U, 0xbd658df0bddf2d8dU, 0x3db28ad700000000U,
  0xbd658df0bccc0c64U, 0xbccc0c64be1c397cU, 0x3d58cd2abe526cc7U, 0xbdb8eb3abd7f0f7cU,
  0xbd3f4b9d3bcc0c64U, 0xbb4c0c643d19094bU, 0xbd92a8e8bea299dfU, 0xbe9110cfbbcc0c64U,
  0x3d85e8213d658df0U, 0x3c4c0c64be526cc7U, 0xbe85e821bd0c4884U, 0xbc99094bbddf2d8dU,
  0x3d7f0f7cbc19094bU, 0xbe05e821bcb28ad7U, 0xbdb8eb3abc19094bU, 0xbc19094bbd658df0U,
  0xbeba8353be6f1e85U, 0xbdd26cc7be724eb6U, 0x3c19094bbe92a8e8U, 0x3d4c0c64be526cc7U,
  0xbce58df03d724eb6U, 0x3c4c0c643c7f0f7cU, 0x3d0c4884bde58df0U, 0xbe0c48843d3f4b9dU,
  0x3de58df0bd7f0f7cU, 0xbe845009be9c397cU, 0xbe811fd7bcff0f7cU, 0xbeadc28dbe427bcfU,
  0xbccc0c64bc7f0f7cU, 0xbe25ca11bc99094bU, 0xbbcc0c643d658df0U, 0xbe3f4b9d3d4c0c64U,
  0x3e15d9193db28ad7U, 0x3d9f69ae3e12a8e8U, 0x3ccc0c643e328ad7U, 0xbe7bdf4bbdd8cd2aU,
  0x3d3f4b9d3db8eb3aU, 0x3dd8cd2a3df24eb6U, 0x3d3f4b9d3db8eb3aU, 0x3df24eb63c7f0f7cU,
  0xbd0c48843db28ad7U, 0x3d58cd2a3de58df0U, 0x3db8eb3abd724eb6U, 0x3d19094b3d25ca11U,
  0x3dff0f7cbe45ac00U, 0xbd7f0f7c3d92a8e8U, 0xbdebee53bc99094bU, 0x3d3f4b9dbd4c0c64U,
  0x3d658df0bd4c0c64U, 0xbdbf4b9dbd8c4884U, 0xbe6bee533d9f69aeU, 0xbe58cd2abdff0f7cU,
  0x3d9f69ae3d25ca11U, 0xbb4c0c643d58cd2aU, 0xbd9f69aebd25ca11U, 0xbd92a8e8bd0c4884U,
  0x3d8c48843d328ad7U, 0xbe05e8213de58df0U, 0xbdb28ad7bde58df0U, 0x3cff0f7cU,
  0xbd99094bbddf2d8dU, 0xbe2299dfbd85e821U, 0xbd58cd2abd328ad7U, 0xbe559cf8be45ac00U,
  0xbe85e821be2299dfU, 0xbe95d919be6bee53U, 0xbd328ad7be658df0U, 0x3c19094bbe19094bU,
  0xbd658df0bb4c0c64U, 0x3bcc0c643d0c4884U, 0xbc7f0f7cbe811fd7U, 0xbe92a8e8bd3f4b9dU,
  0x3dd26cc73d92a8e8U, 0xbeca744bbebc1b6cU, 0xbe7f0f7cbe9aa163U, 0xbe8c4884bea5ca11U,
  0xbbcc0c64bd7f0f7cU, 0xbe92a8e83dac2a74U, 0xbccc0c643d9f69aeU, 0xbea299dfbe625dbeU,
  0x3e625dbebd92a8e8U, 0x3d58cd2a3e45ac00U, 0xbe328ad73e3c1b6cU, 0xbeb28ad7bc99094bU,
  0x3b4c0c643c4c0c64U, 0xbde58df0bccc0c64U, 0xbc4c0c643e1c397cU, 0x3d3f4b9dbe0c4884U,
  0x3c4c0c64bd25ca11U, 0x3dac2a743e25ca11U, 0x3e28fa42be8ab06cU, 0x3d99094b3d4c0c64U,
  0xbd658df0be328ad7U, 0x3e0918533da5ca11U, 0xbe811fd7be6f1e85U, 0x3d92a8e8be99094bU,
  0x3d19094b3d4c0c64U, 0x3d25ca11bdd8cd2aU, 0xbd3f4b9d3dd8cd2aU, 0xbe1c397cbe78af19U,
  0xbcff0f7cbcb28ad7U, 0x3d58cd2a3dcc0c64U, 0xbd19094bbd328ad7U, 0xbe9c397c00000000U,
  0x3d3f4b9d3cb28ad7U, 0x3dac2a743d19094bU, 0xbe2c2a74be625dbeU, 0xbc7f0f7c00000000U,
  0xbd99094bbdb28ad7U, 0xbc99094b3df8af19U, 0xbd99094bbe328ad7U, 0xbd9f69aebddf2d8dU,
  0xbe5f2d8dbd92a8e8U, 0xbdd8cd2abd85e821U, 0xbd7f0f7cbe0c4884U, 0xbbcc0c64bdc5ac00U,
  0x3e02b7f0bc4c0c64U, 0x3bcc0c643d25ca11U, 0x3d85e821be427bcfU, 0xbdff0f7c3c4c0c64U,
  0x3e12a8e83de58df0U, 0xbe92a8e8be7f0f7cU, 0xbe7f0f7cbdf8af19U, 0xbe559cf8be625dbeU,
  0x3bcc0c64bd99094bU, 0xbdd26cc7bcff0f7cU, 0x3da5ca113d25ca11U, 0xbe658df0bdf8af19U,
  0xbe555a1fbd9f4d88U, 0xbe16c4cebe38e7b4U, 0x3e27d641be088b99U, 0x3e4cd165be0b63d7U,
  0xbd82db1dbe1f4d88U, 0xbe1c754abe2d86bdU, 0xbda4fe03be0e3c15U, 0x3d888b99be2225c6U,
  0xbdc1706e3bb60f77U, 0xbe088b99bc360f77U, 0xbcfa55433e199d0cU, 0xbe2225c6be088b99U,
  0xbe199d0c3e111452U, 0x3ddde2d8bdb05efbU, 0x3db05efb3c639354U, 0xbe41706ebc888b99U,
  0x3d6ef44c3e305efbU, 0x3cccd165be82db1dU, 0x3d58325dbdeef44cU, 0x3d088b993d58325dU,
  0xbc9f4d88bcb60f77U, 0x3ddde2d8bb360f77U, 0xbc888b99be3bbff2U, 0x3dc1706e3e16c4ceU,
  0xbc088b99be13ec90U, 0x3e4fa9a3bde943d0U, 0xbde943d03df4a4c7U, 0x3e0b63d7be0002dfU,
  0xbbb60f77bd7a5543U, 0x3e6393543d9f4d88U, 0xbd2aae7fbcfa5543U, 0x3e24fe033e0002dfU,
  0xbdeef44c3dc1706eU, 0xbdaaae7fU, 0xbe0b63d7bb360f77U, 0xbe13ec90bd7a5543U,
  0x3c9f4d88bc360f77U, 0x3d4cd1653cb60f77U, 0x3d888b99bdbbbff2U, 0x3df4a4c73e360f77U,
  0xbc6393543de39354U, 0x3cb60f773c9f4d88U, 0xbd888b99bd41706eU, 0xbcccd165bd999d0cU,
  0x3dfa5543bd6ef44cU, 0xbdb60f773c639354U, 0x3c360f7700000000U, 0x3d4cd1653d41706eU,
  0xbe2d86bdbc888b99U, 0xbdb60f773d13ec90U, 0x3db05efb3cfa5543U, 0x3cfa5543be60bb16U,
  0xbd82db1d3e02db1dU, 0x3d93ec90bd93ec90U, 0x3cccd1653d088b99U, 0xbdccd1653b360f77U,
  0x3d1f4d883c639354U, 0xbe4cd1653d93ec90U, 0xbc888b993de943d0U, 0xbd93ec903bb60f77U,
  0x3dd281e13df4a4c7U, 0xbde943d03ce39354U, 0xbdfa5543be60bb16U, 0xbe2aae7f3e82db1dU,
  0xbea391e53dccd165U, 0xbe05b35bbd1f4d88U, 0xbd13ec90bd4cd165U, 0xbe6ef44cbc639354U,
  0x3dc720eabd4cd165U, 0x3dd8325dbce39354U, 0x3daaae7fbc9f4d88U, 0x3da4fe033e16c4ceU,
  0x3d4cd1653d82db1dU, 0x3c088b99bd6ef44cU, 0x3d1f4d88bc639354U, 0xbd888b993de39354U,
  0x3c9f4d88be6c1c0eU, 0xbdd281e13daaae7fU, 0xbde39354bd639354U, 0x3c888b993de943d0U,
  0xbe05b35bbdc1706eU, 0x3d8e3c153c088b99U, 0xbeb4a3583c088b99U, 0xbe9f4d88bd1f4d88U,
  0x3d58325dbe2aae7fU, 0xbd58325d3c888b99U, 0xbd41706e3c888b99U, 0x3e27d6413d82db1dU,
  0x3da4fe033c639354U, 0xbe2d86bdbd1f4d88U, 0x3e0e3c15beaef2dcU, 0xbdb05efb3c639354U,
  0x3d088b99bdf4a4c7U, 0xbd4cd1653c639354U, 0x3d41706e3dd281e1U, 0xbd999d0cbe74a4c7U,
  0xbd82db1dbdd281e1U, 0xbe6943d03dc1706eU, 0x3e0b63d73c088b99U, 0xbd1f4d88bdc1706eU,
  0xbcfa55433c360f77U, 0xbe2225c6bdd8325dU, 0x3c6393543e199d0cU, 0xbd6ef44cbe2d86bdU,
  0xbc9f4d88be1c754aU, 0xbe6ef44c3e0002dfU, 0x3ce393543e111452U, 0xbcccd1653e8e3c15U,
  0xbd360f77be49f928U, 0xbd9f4d88bdb60f77U, 0xbda4fe03bddde2d8U, 0xbea391e5be360f77U,
  0xbe555a1fbe111452U, 0xbeb05efb3e49f928U, 0x3d6ef44cbb360f77U, 0xbd9f4d88U,
  0xbd9f4d88bd82db1dU, 0xbe360f77bd4cd165U, 0xbd7a55433e4448acU, 0x3d9f4d88be41706eU,
  0xbd1f4d88bbb60f77U, 0xbe27d6413d82db1dU, 0x3dbbbff23c360f77U, 0xbea66a223e305efbU,
  0xbc888b99be0e3c15U, 0xbd088b99bd82db1dU, 0xbce393543d360f77U, 0xbe6943d03cfa5543U,
  0xbdc720eabe1f4d88U, 0x3dccd165be2225c6U, 0xbe305efbbde39354U, 0xbe16c4ce3dc1706eU,
  0xbdccd165be5281e1U, 0xbe6c1c0ebe4cd165U, 0xbddde2d8bc888b99U, 0xbd888b99be4448acU,
  0xbe05b35bbd6ef44cU, 0xbd4cd165bdd8325dU, 0x3ddde2d8bda4fe03U, 0xbd6393543cfa5543U,
  0xbe5281e1bdb60f77U, 0xbe0002dfbde39354U, 0xbdccd1653d41706eU, 0xbd58325dbe666b92U,
  0x3cebd6bdU, 0xbdf7a17a3e862222U, 0xbe2223a23e04a8cbU, 0xbe280901be9ac4ecU,
  0x3cd441443e0d80d8U, 0x3c8d80d8bdb0e10eU, 0x3d6bd6bd3e544144U, 0x3c0d80d8bc3cabcbU,
  0xbda51651bd600c01U, 0xbdebd6bd3e803cc4U, 0x3e1f30f3bd544144U, 0x3d4876873e1c3e44U,
  0x3df1bc1cbdbcabcbU, 0xbe4b69373c8d80d8U, 0xbe30e10e3d251651U, 0xbe4e5be6bd6bd6bdU,
  0x3dfd86d8bc8d80d8U, 0xbdc87687bd251651U, 0xbd9f30f33dc29129U, 0xbd879b7abe65f15fU,
  0x3cebd6bd3d30e10eU, 0xbd879b7abbbcabcbU, 0xbd81b61bbcbcabcbU, 0xbe1073873d194b95U,
  0xbd81b61b3b3cabcbU, 0x3d81b61b3cbcabcbU, 0xbdf7a17abe0a8e29U, 0x3d0d80d8bda51651U,
  0xbe1f30f3bca51651U, 0xbd77a17a3db6c66cU, 0xbd936636bd879b7aU, 0x3bbcabcbbd0d80d8U,
  0x3d879b7abbbcabcbU, 0x3dd44144bd879b7aU, 0x3daafbb0be01b61bU, 0xbd936636be514e95U,
  0xbcebd6bd3d0d80d8U, 0x3b3cabcb3e01b61bU, 0x3d2516513cebd6bdU, 0xbd0d80d8bd6bd6bdU,
  0xbb3cabcb3d8d80d8U, 0xbd81b61bbdda26a2U, 0xbd194b95bd8d80d8U, 0x3ca51651bd194b95U,
  0xbd0d80d83d994b95U, 0xbe1366363d3cabcbU, 0xbca51651bd544144U, 0xbd8d80d83dbcabcbU,
  0x3de5f15f3cebd6bdU, 0x3cebd6bdbe62feb0U, 0x3df7a17abda51651U, 0x3c3cabcb3cebd6bdU,
  0xbd9f30f3bb3cabcbU, 0x3daafbb0bb3cabcbU, 0x3d01b61bbe8d80d8U, 0xbdf7a17a3d936636U,
  0xbdc29129bd487687U, 0x3e33d3bdbe84a8cbU, 0xbdebd6bd3e136636U, 0x3d0d80d8bdc87687U,
  0xbd81b61b3db6c66cU, 0x3e36c66cbd600c01U, 0xbe136636be2223a2U, 0x3e01b61b3e1c3e44U,
  0x3d487687U, 0x3cbcabcbbe2afbb0U, 0xbde00c01be33d3bdU, 0xbe429129be3f9e7aU,
  0x3c0d80d8bd30e10eU, 0x3c8d80d83d544144U, 0xbc8d80d8be280901U, 0x3ebb32733e544144U,
  0xbd77a17a3df7a17aU, 0x3db6c66cbe1658e6U, 0x3e079b7abbbcabcbU, 0xbd6bd6bdbca51651U,
  0x3d3cabcbbe7a9429U, 0x3e0d80d83d9f30f3U, 0xbd600c013e280901U, 0x3e4583d83d0d80d8U,
  0xbc6bd6bdbe107387U, 0xbd2516513e136636U, 0xbe84a8cb3cd44144U, 0xbe514e95be487687U,
  0x3d544144bdd44144U, 0xbe1f30f3bdaafbb0U, 0x3d01b61b3d81b61bU, 0x3e04a8cb3bbcabcbU,
  0x3db6c66c3d9f30f3U, 0xbe0a8e29bdbcabcbU, 0x3e65f15fbea223a2U, 0xbc8d80d83c0d80d8U,
  0x3dd44144be1c3e44U, 0xbe8d80d800000000U, 0xbe04a8cb3d994b95U, 0xbe487687be9c3e44U,
  0xbe1366363d8d80d8U, 0xbcebd6bdbd487687U, 0xbc6bd6bdbd936636U, 0xbdc87687be68e40eU,
  0xbd4876873d936636U, 0x3db6c66c3dce5be6U, 0x3de00c01be01b61bU, 0x3e01b61b3d0d80d8U,
  0x3daafbb03df1bc1cU, 0xbdf1bc1cbe1c3e44U, 0xbca51651bd194b95U, 0xbd3cabcbbdf7a17aU,
  0x3d77a17a3da51651U, 0xbe33d3bdbd487687U, 0x3dda26a23df1bc1cU, 0xbdc291293debd6bdU,
  0xbdc29129bda51651U, 0xbe01b61b3dbcabcbU, 0xbd6bd6bd3cbcabcbU, 0xbd600c01be1658e6U,
  0xbb3cabcb3c8d80d8U, 0xbd936636bd994b95U, 0x3d3cabcbU, 0x3e1658e6bdce5be6U,
  0xbcd441443e0a8e29U, 0xbe879b7a3d30e10eU, 0x3e600c01bdaafbb0U, 0xbd994b953c0d80d8U,
  0x3d01b61b3dce5be6U, 0xbd936636bd30e10eU, 0x3de5f15f3dc87687U, 0xbdd44144be36c66cU,
  0x3e5441443d01b61bU, 0x3e0a8e293bbcabcbU, 0x3e04a8cbbc6bd6bdU, 0x3d544144bdbcabcbU,
  0xbc3cabcbbd77a17aU, 0xbe1658e6be81b61bU, 0xbdc876873de00c01U, 0xbe107387be6bd6bdU,
  0xbe62feb0bd0d80d8U, 0x3e1073873db6c66cU, 0x3db0e10e3c8d80d8U, 0x3e81b61bbdb6c66cU,
  0xbe3cabcb3d9f30f3U, 0x3e30e10ebd879b7aU, 0xbd0d80d8be136636U, 0x3d77a17a3dd44144U,
  0x3daf6d053da81dd0U, 0xbd69e6b23c69e6b2U, 0x3d4ca9dcbd8ae0faU, 0xbd3e0b70be0391c4U,
  0xbccca9dc3d5b4847U, 0x3d92302f3c69e6b2U, 0x3caf6d053d0391c4U, 0xbe2f6d053d69e6b2U,
  0xbd0391c43de9e6b2U, 0x3d69e6b2bd78851dU, 0xbde9e6b2bddb4847U, 0x3c2f6d053d12302fU,
  0x3d78851dbd78851dU, 0xbd2f6d053dbe0b70U, 0xbd20ce9a3caf6d05U, 0xbc2f6d053ccca9dcU,
  0xbd8ae0fabd3e0b70U, 0xbe197f65bd0391c4U, 0x3daf6d05bda0ce9aU, 0x3d78851dbe3e0b70U,
  0xbd78851d3dcca9dcU, 0xbd92302fbbe9e6b2U, 0x3da81dd0U, 0xbcaf6d053d12302fU,
  0xbd4ca9dc3d3e0b70U, 0xbd5b4847bd8ae0faU, 0xbe12302f3d2f6d05U, 0xbc2f6d053d20ce9aU,
  0x3dbe0b703c69e6b2U, 0x3caf6d053d8391c4U, 0xbdc55aa6bd4ca9dcU, 0xbd20ce9a3e2f6d05U,
  0xbd12302f3c69e6b2U, 0xbda81dd03e2f6d05U, 0x3e281dd03e4ca9dcU, 0x3da81dd0bee812e4U,
  0x3d8ae0fa3e0ae0faU, 0x3d8ae0fa3e12302fU, 0xbc92302f3e0ae0faU, 0x3d20ce9a3db6bc3bU,
  0x3de9e6b2bb69e6b2U, 0xbd92302f3e81bdf7U, 0xbda81dd0bccca9dcU, 0x3da0ce9a3e197f65U,
  0x3e5b48473dffd452U, 0xbdbe0b703d69e6b2U, 0xbc2f6d05bc92302fU, 0xbdf8851d3ddb4847U,
  0xbd92302f3db6bc3bU, 0xbd4ca9dc3caf6d05U, 0xbe0e8894bdaf6d05U, 0xbe6d8e4dbe455aa6U,
  0xbcaf6d053d12302fU, 0x3d8391c43d78851dU, 0xbd0391c4U, 0xbdbe0b703d12302fU,
  0xbd12302f3da0ce9aU, 0xbe0ae0fa3dcca9dcU, 0x3dbe0b70be247635U, 0x3de9e6b23e247635U,
  0xbc2f6d05be3a63d6U, 0xbe7fd452bd2f6d05U, 0xbdf8851dbccca9dcU, 0xbdf135e73b69e6b2U,
  0xbd2f6d05be41b30bU, 0xbda81dd03e20ce9aU, 0xbc69e6b23da81dd0U, 0xbee63f17be3a63d6U,
  0x3c69e6b2bda0ce9aU, 0xbe3314a0bc92302fU, 0xbda0ce9a3de9e6b2U, 0x3dffd4523caf6d05U,
  0x3d8ae0fabdaf6d05U, 0xbccca9dc3caf6d05U, 0x3d8ae0fabd8391c4U, 0xbd997f653da0ce9aU,
  0xbc69e6b2be7c2cb8U, 0xbc69e6b23b69e6b2U, 0xbe74dd82be15d7caU, 0xbe455aa6bdbe0b70U,
  0x3d8391c4bd12302fU, 0xbda81dd03d78851dU, 0x3c69e6b23e15d7caU, 0xbe281dd0be8ae0faU,
  0x3c69e6b2be07395fU, 0xbdcca9dcbda0ce9aU, 0x3c69e6b23ddb4847U, 0xbde2977cbd0391c4U,
  0xbd8391c43d0391c4U, 0x3da81dd0bce9e6b2U, 0xbdbe0b70bd5b4847U, 0xbd4ca9dcbd8391c4U,
  0xbe07395fbddb4847U, 0x3daf6d0500000000U, 0xbdf135e7bd8ae0faU, 0x3b69e6b2bda0ce9aU,
  0x3e15d7cabe490241U, 0x3e07395f3d69e6b2U, 0xbe4ca9dc3d69e6b2U, 0xbea47635bdb6bc3bU,
  0xbe3314a0be07395fU, 0xbe5b4847be4ca9dcU, 0xbd69e6b23ce9e6b2U, 0x3e12302fbde9e6b2U,
  0xbd12302fbd92302fU, 0x3d8ae0fa3d69e6b2U, 0x3d8ae0fabe0ae0faU, 0xbe197f653d69e6b2U,
  0xbe0391c4be2f6d05U, 0x3d8ae0fabd0391c4U, 0xbea64a02bc69e6b2U, 0x3d3e0b70bda0ce9aU,
  0x3e3a63d63e07395fU, 0x3e07395fbea2a268U, 0x3d78851d3d20ce9aU, 0xbe3a63d63d2f6d05U,
  0x3caf6d053ccca9dcU, 0x3ddb48473c92302fU, 0xbda81dd0be490241U, 0xbe7c2cb83d92302fU,
  0xbb69e6b2be36bc3bU, 0x3ddb4847be78851dU, 0xbe7c2cb83d12302fU, 0x3c92302fbe9403fcU,
  0xbdf8851dbdf8851dU, 0x3e12302f3d20ce9aU, 0xbe5eefe1beba63d6U, 0x3e1d26ff3e663f17U,
  0x3d20ce9a3e1d26ffU, 0x3e0ae0fabea2a268U, 0x3e07395fbe455aa6U, 0xbde2977cbe41b30bU,
  0xbd20ce9abccca9dcU, 0x3df8851d3d3e0b70U, 0x3ccca9dcbece7da9U, 0x3d69e6b23d78851dU,
  0x3d997f653d8ae0faU, 0x3da81dd0be12302fU, 0xbd2f6d053e12302fU, 0xbd4ca9dcbe62977cU,
  0x3c92302f3d78851dU, 0xbc92302f3d20ce9aU, 0xbd12302f3df135e7U, 0x3e12302f3dbe0b70U,
  0x3e2193793dc64c43U, 0x3d3ef41bbeae6dc0U, 0xbe0086c3bdcda46cU, 0xbedc54bc3d9a3b51U,
  0xbceb050d3dbef41bU, 0x3d3ef41bbc6b050dU, 0xbc92e328be63ace5U, 0xbe0b8b003ccda46cU,
  0x3c92e328bceb050dU, 0xbbeb050dbe4da46cU, 0xbe87deecbd219379U, 0x3dcda46cbe76094aU,
  0x3b6b050dbe0f3714U, 0x3d79b55ebc3043caU, 0xbdcda46cbdbef41bU, 0x3e1a3b513d5c54bcU,
  0xbd4da46c3deb050dU, 0x3db043cabbeb050dU, 0xbdb79bf2be379bf2U, 0xbe79b55e3ceb050dU,
  0xbc92e3283d6b050dU, 0x3ddc54bc3beb050dU, 0x3d79b55ebe253f8dU, 0x3d3043cabc6b050dU,
  0x3ddc54bc3d8432d7U, 0x3dd4fc94bb6b050dU, 0xbd219379bdc64c43U, 0xbd9a3b51bddc54bcU,
  0x3d79b55ebe5c54bcU, 0xbc92e3283cb043caU, 0xbd8432d73d12e328U, 0x3db043ca3d3ef41bU,
  0xbe464c43bde3ace5U, 0xbeac97b63e0f3714U, 0xbdf25d363e28eba2U, 0xbe12e328be6eb121U,
  0xbbeb050dbd79b55eU, 0x3cb043ca3ddc54bcU, 0x3e0b8b003deb050dU, 0x3d3ef41b3da19379U,
  0x3d0432d73b6b050dU, 0xbeac97b63dd4fc94U, 0x3e12e328be6b050dU, 0xbe4da46c3dc64c43U,
  0x3d4da46cbdd4fc94U, 0xbed3268abd92e328U, 0x3ccda46c3d4da46cU, 0xbe8608e2be58a8a8U,
  0x3da193793dd4fc94U, 0x3d9a3b51bd6b050dU, 0xbe464c43bd4da46cU, 0xbec8224dbe12e328U,
  0x3d9a3b513d5c54bcU, 0x3c92e3283c3043caU, 0xbbeb050dbda8eba2U, 0x3c6b050d3beb050dU,
  0x3d8432d7bd12e328U, 0x3ddc54bcbd6b050dU, 0xbd8432d7be33efdeU, 0x3da19379bc92e328U,
  0xbc3043cabe5c54bcU, 0xbe12e3283db79bf2U, 0xbe0f3714bc3043caU, 0x3d8b8b00bdcda46cU,
  0x3c3043cabd8b8b00U, 0x3dcda46c3d9a3b51U, 0xbe1de7653ccda46cU, 0xbe0f3714be6eb121U,
  0xbd5c54bcbd8432d7U, 0xbd8b8b00bccda46cU, 0x3db043ca3d8432d7U, 0xbd8432d73cb043caU,
  0xbc6b050d3d0432d7U, 0xbd5c54bcbde3ace5U, 0x3d3ef41bbee92f03U, 0x3d6b050dbd5c54bcU,
  0x3d219379bda8eba2U, 0xbe76094a3d12e328U, 0xbbeb050dbccda46cU, 0x3df25d36becf7a76U,
  0xbd79b55ebe8b8b00U, 0xbe253f8d3da8eba2U, 0xbcb043ca3c92e328U, 0x3da8eba2bd92e328U,
  0xbdeb050dbda8eba2U, 0xbe8086c3bd3043caU, 0xbdb79bf2bd3043caU, 0x3c92e328be2c97b6U,
  0xbda8eba200000000U, 0xbe9865473d0432d7U, 0x3d4da46cbe3b4807U, 0xbdd4fc943b6b050dU,
  0xbd3ef41b3d8432d7U, 0xbe54fc94be3ef41bU, 0x3d12e3283e12e328U, 0xbe910d1ebe8f3714U,
  0xbd0432d73d5c54bcU, 0x3d4da46cbcb043caU, 0xbe63ace53d0432d7U, 0xbe9a3b51bd79b55eU,
  0xbd9a3b51bd219379U, 0xbd8b8b00bd3043caU, 0xbc92e328bdd4fc94U, 0xbe3b4807bddc54bcU,
  0x3d2193793d79b55eU, 0x3da19379bd8b8b00U, 0xbd0432d7becbce61U, 0xbceb050d3ccda46cU,
  0xbbeb050dbe379bf2U, 0xbe253f8d3beb050dU, 0xbc92e328bd219379U, 0xbd3043cabe8432d7U,
  0xbd12e32800000000U, 0x3da19379bd3043caU, 0xbd79b55e3d3ef41bU, 0x3cb043cabd12e328U,
  0xbceb050dbd5c54bcU, 0xbd5c54bcbc3043caU, 0x3d6b050dbc6b050dU, 0xbd6b050d3db79bf2U,
  0x3d8b8b00bd219379U, 0xbd6b050dbbeb050dU, 0xbd3ef41bbd219379U, 0xbd79b55ebda19379U,
  0x3e0086c3bb6b050dU, 0x3dcda46cbd12e328U, 0x3d8b8b003d92e328U, 0xbd4da46cbe5c54bcU,
  0xbd3043cabe0086c3U, 0xbdcda46cbdb043caU, 0x3e2c97b6be3b4807U, 0x3deb050dbd6b050dU,
  0xbe0432d73ccda46cU, 0xbd9a3b51bbeb050dU, 0xbd12e328be33efdeU, 0x3dbef41bbe0f3714U,
  0xbdbef41b3cb043caU, 0xbdeb050d3da19379U, 0xbbeb050d3d4da46cU, 0xbe49f857bdf25d36U,
  0xbd3ef41b3e0086c3U, 0xbccda46cbe0f3714U, 0x3e3ef41b3e0f3714U, 0xbdf9b55ebe1de765U,
  0x3e081aca3d432b3fU, 0x3e245a50bd245a50U, 0xbdae9ff53d8fcf06U, 0xbe5525203dd7b689U,
  0x3bf68778bca45a50U, 0xbd61fc2ebdb3c2c8U, 0xbba45a50bdbe086dU, 0x3ccd70e4bd858961U,
  0xbd8fcf06bd0fcf06U, 0x3dd293b73c8fcf06U, 0xbba45a50bdec41d3U, 0x3da45a50bc8fcf06U,
  0xbdd7b689bdd293b7U, 0x3db3c2c83d94f1d9U, 0xbd57b689be245a50U, 0x3df687783c4d70e4U,
  0x3c8fcf06U, 0x3d6c41d33d1a14abU, 0x3cb8e59abe80668fU, 0x3e0aac343c4d70e4U,
  0x3dd7b68900000000U, 0x3dbe086d3d0fcf06U, 0x3cf68778be2c0e8cU, 0xbc4d70e4bd80668fU,
  0xbca45a503d768778U, 0xbdc32b3fbe1a14abU, 0x3d4d70e4be02f7f8U, 0xbd6c41d3bd80668fU,
  0x3d9a14ab3c4d70e4U, 0x3ba45a50bd432b3fU, 0x3d9a14ab3dc84e12U, 0x3d80668fbdb3c2c8U,
  0x3d1a14abbe858961U, 0xbcb8e59a3dc32b3fU, 0xbe552520bd1a14abU, 0xbd432b3fbc245a50U,
  0xbc8fcf06be297d23U, 0xbe081acabdf68778U, 0x3c245a50U, 0xbd2e9ff5bdc32b3fU,
  0xbe0fcf06bddcd95cU, 0xbea1c8e7bdf164a6U, 0x3dae9ff5bccd70e4U, 0xbdae9ff53d1a14abU,
  0xbdf687783c4d70e4U, 0xbe2c0e8cbe4adf7bU, 0xbd9a14ab3ce1fc2eU, 0xbe0fcf06be058961U,
  0x3e50024e3df164a6U, 0x3e45bca9bd8aac34U, 0x3d0fcf063cb8e59aU, 0xbe69b06a3d058961U,
  0xbd8fcf06bdb8e59aU, 0xbd9a14abbc768778U, 0xbd9a14abbdf164a6U, 0xbe1ca6153d57b689U,
  0xbd94f1d9bd9a14abU, 0x3e1f377e3d058961U, 0xbe80668fbe3b7704U, 0x3e1f377e3ce1fc2eU,
  0xbce1fc2ebe1ca615U, 0x3df687783d8fcf06U, 0xbc4d70e43d1a14abU, 0x3e5a47f3bddcd95cU,
  0xbd9a14abbd058961U, 0xbe02f7f8bd8fcf06U, 0xbe1f377ebe4d70e4U, 0x3d8aac34be12606fU,
  0x3d1a14ab3d432b3fU, 0xbda97d233d058961U, 0x3d432b3fbe297d23U, 0xbd61fc2e3b245a50U,
  0x3d2e9ff5bcb8e59aU, 0xbdd7b689bd768778U, 0x3dcd70e4be648d98U, 0x3c768778bd61fc2eU,
  0x3d8aac343e081acaU, 0xbea3119c3ce1fc2eU, 0x3e31315f3e081acaU, 0x3d0fcf06bca45a50U,
  0x3e69b06abda97d23U, 0x3e4adf7bbda97d23U, 0xbce1fc2e3d38e59aU, 0x3db3c2c83dc32b3fU,
  0xbd1a14abbd8aac34U, 0xbe768778be21c8e7U, 0xbd8aac34be5cd95cU, 0xbdb8e59abe4d70e4U,
  0xbe365431bce1fc2eU, 0x3e1a14abbe0d3d9dU, 0xbddcd95c3ba45a50U, 0x3d6c41d3be7918e2U,
  0xbe3e086d3d4d70e4U, 0x3dd7b689bd768778U, 0xbd432b3fbd245a50U, 0x3e21c8e7bdb8e59aU,
  0xbc7687783da97d23U, 0x3e26ebba3d0fcf06U, 0xbd0fcf06bd768778U, 0xbe1a14ab3bf68778U,
  0xbc245a50bd1a14abU, 0x3df687783d0fcf06U, 0xbccd70e4be02f7f8U, 0xbda45a503d768778U,
  0xbcf68778bdec41d3U, 0xbba45a50bdf68778U, 0xbdb3c2c83c768778U, 0x3e38e59abd38e59aU,
  0xbd8fcf06bdcd70e4U, 0xbd858961bd57b689U, 0xbd4d70e4bd61fc2eU, 0x3e1783423d1a14abU,
  0xbd8aac34bdf68778U, 0xbd8aac34be0d3d9dU, 0x3c245a50be4d70e4U, 0x3cf68778bdfbaa4bU,
  0xbd245a50bddcd95cU, 0xbbf68778bc8fcf06U, 0x3d57b689bd2e9ff5U, 0xbc768778bde71f01U,
  0xbd2e9ff53bf68778U, 0xbd61fc2ebe432b3fU, 0x3dcd70e4bc245a50U, 0xbe178342bda45a50U,
  0xbd6c41d33e12606fU, 0xbcf68778bc4d70e4U, 0x3d8aac343de71f01U, 0xbe0fcf06be02f7f8U,
  0x3cb8e59a3d0fcf06U, 0x3db8e59abe2c0e8cU, 0xbce1fc2ebd058961U, 0xbcf687783d38e59aU,
  0x3c4d70e4be02f7f8U, 0xbdae9ff53b245a50U, 0xbe21c8e7be4d70e4U, 0x3e26ebba00000000U,
  0xbd6c41d3be14f1d9U, 0x3dbe086dbcb8e59aU, 0xbe1ca6153ba45a50U, 0x3e3e086dbe86d216U,
  0x3b245a50bd432b3fU, 0x3cf687783c8fcf06U, 0x3ce1fc2ebd768778U, 0x3d1a14abbd61fc2eU,
  0xbd93fc67bd731eaaU, 0xbe438d88bdb3b27dU, 0x3db8fb81bdfdb0b1U, 0x3e40e907bd84215cU,
  0x3d13fc67bd731eaaU, 0xbdddfa9b3c7db0b1U, 0xbdd8b1973d896a60U, 0xbe609f1dbdc38d88U,
  0x3d1e8e6f3d731eaaU, 0xbe3656ff3d1e8e6fU, 0xbcd368933dd8b197U, 0xbe40e907bd096a60U,
  0xbdb8fb81bcbe4485U, 0x3c536893bd9e8e6fU, 0x3e1be9edbd1e8e6fU, 0xbd48d68c3d93fc67U,
  0x3d84215cU, 0x3c5368933dbe4485U, 0xbe3ba0033d9e8e6fU, 0xbce88ca2bde3439eU,
  0x3d096a60bc292076U, 0xbdce1f90bcfdb0b1U, 0x3ce88ca23e3e4485U, 0xbce88ca2bdd36893U,
  0xbd3e4485bd5dfa9bU, 0xbce88ca23cfdb0b1U, 0xbdddfa9bbdd8b197U, 0x3e1157e5bcfdb0b1U,
  0xbe04215cbe017cdaU, 0xbdbe4485bd8eb364U, 0xbd13fc673cd36893U, 0xbd3e4485bdddfa9bU,
  0x3d93fc67bb292076U, 0x3e1e8e6fbd48d68cU, 0xbdce1f903de88ca2U, 0xbd292076be310dfbU,
  0x3de3439e3d13fc67U, 0xbc93fc673db3b27dU, 0x3da3d772bdd36893U, 0xbe38fb813dd36893U,
  0x3dce1f903dedd5a6U, 0x3dddfa9b3dae697aU, 0xbde88ca2be8c0ee2U, 0x3ca92076bdf867adU,
  0x3d5dfa9bbdd8b197U, 0x3d096a603e38fb81U, 0xbda92076bcd36893U, 0x3dc8d68cbe536893U,
  0xbd5dfa9b3dddfa9bU, 0xbe38fb813ca92076U, 0x3e1e8e6f3c292076U, 0x3e23d772be1e8e6fU,
  0xbd48d68c3c93fc67U, 0x3d896a603e096a60U, 0x3dddfa9bbd536893U, 0x3e3656ff3d13fc67U,
  0x3e04215c3dc8d68cU, 0xbd33b27dU, 0x3dedd5a63dbe4485U, 0xbc93fc673c292076U,
  0x3e1157e53e5b5619U, 0xbe04215c3dc8d68cU, 0x3e2920763e4e1f90U, 0xbdb3b27d3dfdb0b1U,
  0xbda3d772bdb3b27dU, 0xbd688ca2bdbe4485U, 0x3d096a603d688ca2U, 0x3e04215cbc536893U,
  0xbe06c5debdd36893U, 0xbe0eb364bd3e4485U, 0xbdce1f90bdb3b27dU, 0x3d096a60bcfdb0b1U,
  0xbdce1f90bd13fc67U, 0x3c536893bd13fc67U, 0x3c93fc67bdd36893U, 0xbcbe4485bd292076U,
  0xbd292076bd1e8e6fU, 0xbd7db0b1bdae697aU, 0x3da3d772bd9e8e6fU, 0xbdd36893bd33b27dU,
  0x3e0c0ee23e017cdaU, 0x3dc8d68cbda92076U, 0xbc7db0b13d536893U, 0xbe88181fbdf867adU,
  0x3bfdb0b13dc38d88U, 0x3df31eaa3b292076U, 0x3c292076be310dfbU, 0xbdf31eaabba92076U,
  0x3df31eaa3d5dfa9bU, 0x3e017cdabd1e8e6fU, 0xbea7ce35bd731eaaU, 0x3dce1f90be8c0ee2U,
  0xbda3d772be19456bU, 0x3d5368933d1e8e6fU, 0xbdf867adbe13fc67U, 0x3d13fc67bdd8b197U,
  0x3ce88ca2bce88ca2U, 0xbcd36893bd731eaaU, 0xbe93fc67bdfdb0b1U, 0xbc2920763d096a60U,
  0xbd1e8e6fbd13fc67U, 0xbd896a60bd7db0b1U, 0x3c7db0b1bdce1f90U, 0x3e63439e3c292076U,
  0x3d9e8e6f3dc8d68cU, 0x3db3b27dbe1be9edU, 0x3e38fb81be5dfa9bU, 0xbcfdb0b1bc292076U,
  0x3dc38d88bd84215cU, 0xbd13fc67bd84215cU, 0x3c7db0b13e04215cU, 0x3d93fc67be5b5619U,
  0x3e06c5de3d536893U, 0x3e06c5debdb3b27dU, 0x3ce88ca2bbfdb0b1U, 0xbe096a60be1157e5U,
  0xbcbe4485bd48d68cU, 0xbc7db0b1bdc8d68cU, 0xbe267bf4be292076U, 0xbdf867ad3cbe4485U,
  0xbdb8fb81bc536893U, 0x3d731eaabdf867adU, 0x3ce88ca2bdf867adU, 0xbd33b27dbe06c5deU,
  0xbdf31eaa3c536893U, 0xbd2920763c292076U, 0xbd896a60bc536893U, 0x3d8eb364bd7db0b1U,
  0x3e3e44853d731eaaU, 0x3d896a60be1be9edU, 0xbd2920763d292076U, 0xbe75c32bbe292076U,
  0x3d13fc673dae697aU, 0x3b2920763d3e4485U, 0xbba92076bdd8b197U, 0xbdc8d68c3dc8d68cU,
  0x3cfdb0b13d292076U, 0x3d096a60bca92076U, 0xbe817cdabd731eaaU, 0x3c292076be97f32aU,
  0x3b292076be1e8e6fU, 0x3dd368933dbe4485U, 0xbdae697abdb3b27dU, 0x3e38fb81bbfdb0b1U,
  0x3dea0c53be18c80bU, 0x3d430a45U, 0x3cea0c533e0f0788U, 0x3ddd0ba4bda908e7U,
  0xbdb609963d500af4U, 0xbe0206d9be2f893eU, 0xbe2c49123c8206d9U, 0xbe86e71abe500af4U,
  0xbc9c0837be498a9dU, 0x3bd00af43d360996U, 0xbe59cb783d0f0788U, 0x3d5d0ba4bd0206d9U,
  0xbe7d8d5a3da908e7U, 0x3df70d02bb500af4U, 0xbdd00af4bdd00af4U, 0xbc500af4bdd68b4cU,
  0xbc1c08373d360996U, 0x3d500af4bdea0c53U, 0x3d770d023b500af4U, 0xbc500af4bd1c0837U,
  0xbdb60996bd1c0837U, 0x3dd00af43d770d02U, 0x3da908e7bd360996U, 0xbdf08cab3d6a0c53U,
  0x3cea0c53bd8206d9U, 0x3d770d023d360996U, 0xbe83a6efbcd00af4U, 0x3da2888fbd8206d9U,
  0xbd500af4bd9c0837U, 0x3df08cab3c1c0837U, 0xbe3fca19be22888fU, 0x3e0206d93d6a0c53U,
  0xbe3609963c9c0837U, 0xbe22888fbdc30a45U, 0xbd500af4be0206d9U, 0x3d1c0837bdc98a9dU,
  0xbc1c08373dd68b4cU, 0x3c8206d9bc9c0837U, 0xbc8206d9be1247b4U, 0xbe9c0837bc8206d9U,
  0x3c8206d93cd00af4U, 0xbda2888fbe088730U, 0xbe9587e0bd9c0837U, 0xbe498a9dbe1247b4U,
  0x3c500af4bd5d0ba4U, 0xbd9c08373d0f0788U, 0xbdb60996bd2908e7U, 0xbe2908e73d360996U,
  0xbd8f07883dbc89edU, 0xbde38bfb3e6d4c7fU, 0x3e1587e03dbc89edU, 0x3dea0c53be088730U,
  0xbd8206d93df70d02U, 0x3d0f0788bd5d0ba4U, 0xbd8887303e66cc27U, 0x3ddd0ba43d500af4U,
  0xbc500af4be2f893eU, 0x3c1c08373e2908e7U, 0x3d500af43e464a71U, 0x3cd00af43e18c80bU,
  0x3d770d023d8206d9U, 0x3e638bfbbcea0c53U, 0xbe1c0837bd500af4U, 0xbcb609963e3fca19U,
  0x3daf893ebd2908e7U, 0xbe32c96abc8206d9U, 0xbda2888f3e4ccac9U, 0xbe464a71be98c80bU,
  0x3d3609963d8206d9U, 0xbbd00af43daf893eU, 0x3d6a0c53bd0f0788U, 0x3e1f48633d0206d9U,
  0xbc8206d93d0206d9U, 0xbdf08cab3ddd0ba4U, 0x3d770d023c500af4U, 0xbdbc89ed3d0f0788U,
  0x3dd00af4be534b20U, 0x3c8206d9bd430a45U, 0xbe73ccd6bbd00af4U, 0xbd9c0837bbd00af4U,
  0x3e0206d9bc1c0837U, 0x3d5d0ba4be498a9dU, 0xbe3c89edbc8206d9U, 0xbe5d0ba4be22888fU,
  0x3d430a453c1c0837U, 0x3d8f0788bc9c0837U, 0x3d8206d9be500af4U, 0xbec16a2f3c500af4U,
  0xbcb60996U, 0x3d430a45be088730U, 0xbe708cabbe86e71aU, 0xbd8f0788be7a4d2eU,
  0xbc500af4be2c4912U, 0xbdea0c533e088730U, 0xbdfd8d5abde38bfbU, 0xbda2888fbe498a9dU,
  0x3d0206d9U, 0xbd770d023e638bfbU, 0xbbd00af43e430a45U, 0xbd5d0ba4bd0206d9U,
  0xbdc30a45bd430a45U, 0xbd8206d9bc500af4U, 0xbd8206d93e3c89edU, 0x3e3c89edbd6a0c53U,
  0xbd8206d9U, 0xbc500af43de38bfbU, 0x3e9c08373e1247b4U, 0xbe0206d93e708cabU,
  0x3da2888fbdc98a9dU, 0x3d9587e0be3fca19U, 0xbe534b20be1f4863U, 0xbd8887303e464a71U,
  0x3ddd0ba4bc1c0837U, 0x3e32c96abe534b20U, 0xbda2888f3daf893eU, 0xbece6adfbdd00af4U,
  0xbdbc89edbd5d0ba4U, 0x3d8f0788bdc30a45U, 0xbcea0c53be0206d9U, 0x3cea0c533d0206d9U,
  0xbddd0ba43bd00af4U, 0x3e3c89edbdc98a9dU, 0x3d2908e73d360996U, 0x3da2888fbe604bd0U,
  0xbd8f0788be1c0837U, 0x3df08cab3d0206d9U, 0xbe464a71be1c0837U, 0x3dc98a9d3c8206d9U,
  0x3dd00af43e534b20U, 0x3df70d02be1f4863U, 0xbeb949c2bd5d0ba4U, 0xbe088730be9f4863U,
  0xbda2888fbd888730U, 0xbb500af43daf893eU, 0x3c1c0837beaf893eU, 0xbd3609963e1587e0U,
  0x3d5d0ba43d888730U, 0x3e3fca19bbd00af4U, 0xbe8206d9beb12954U, 0x3dd68b4cbe90a79eU,
  0x3c9c0837bd500af4U, 0x3d770d023dea0c53U, 0x3e25c8bb3e1c0837U, 0x3e0bc75cbe4ccac9U,
  0x3b8333823d760093U, 0x3d833382be7a1a2fU, 0xbca40062bd833382U, 0xbe7e33cbbdac339aU,
  0x3d8333823c44cd43U, 0x3d9399f23dfe33cbU, 0x3ce59a23bc833382U, 0xbd0333823dbc9a0bU,
  0xbd3466d23ca40062U, 0x3dfe33cbbe8d7388U, 0xbb8333823d8b66baU, 0xbdb466d2be618087U,
  0xbca400623d760093U, 0x3dfe33cb00000000U, 0xbdc4cd43bd3466d2U, 0x3e2819fe3e511a17U,
  0x3b8333823d44cd43U, 0x3e033382bd3466d2U, 0xbd833382bd9399f2U, 0xbeb466d2be5d66ebU,
  0x3e0333823d8b66baU, 0x3e4d007b3dbc9a0bU, 0x3e0b66babd44cd43U, 0x3e9dd9f83e6dcd5bU,
  0x3ca400623d9399f2U, 0x3e1bcd2abd659a23U, 0x3e38806f00000000U, 0xbe4d007bbddd66ebU,
  0x3e48e6dfbe5533b3U, 0x3e5d66eb00000000U, 0xbda400623d1399f2U, 0x3e7e33cb3de59a23U,
  0xbe874d1e3e5533b3U, 0xbeb673a03e1399f2U, 0xbe8333823d240062U, 0xbe9fe6c6be5533b3U,
  0x3e0f80563ca40062U, 0x3e874d1e3da40062U, 0x3e0b66ba3e1399f2U, 0x3e97b38e3e2819feU,
  0x3e1399f23d8b66baU, 0xbde59a233dedcd5bU, 0x3e511a17bd3466d2U, 0xbec6da1100000000U,
  0x3e7a1a2fbdd533b3U, 0xbda400623d760093U, 0xbd3466d23c833382U, 0xbd8333823dc4cd43U,
  0xbd0333823cc4cd43U, 0x3cc4cd43bc033382U, 0xbddd66ebbe2c339aU, 0xbd44cd43be304d36U,
  0xbc0333823d9399f2U, 0x3d1399f23c44cd43U, 0x3b833382be033382U, 0xbce59a233ddd66ebU,
  0x3d44cd43bc833382U, 0x3d1399f2bde59a23U, 0xbe38806fbe0f8056U, 0xbd3466d2bd8b66baU,
  0xbcc4cd43bd8b66baU, 0xbe3c9a0b3d659a23U, 0x3df600933d833382U, 0xbc44cd43bd44cd43U,
  0xbe033382bdb466d2U, 0xbe17b38ebd760093U, 0xbd9bcd2abe0f8056U, 0x3db466d2be9399f2U,
  0x3d5533b3bda40062U, 0xbd0333823ce59a23U, 0xbce59a23bd9bcd2aU, 0xbd7600933d033382U,
  0x3dac339a3d44cd43U, 0xbe6dcd5bbda40062U, 0x3dd533b3be511a17U, 0xbdcd007bbdc4cd43U,
  0xbda400623da40062U, 0xbddd66ebbc033382U, 0xbd833382bd760093U, 0xbe1bcd2abe38806fU,
  0xbdc4cd43be2819feU, 0xbe95a6c03ca40062U, 0x3dedcd5bbd760093U, 0x3df60093beb673a0U,
  0xbd7600933d1399f2U, 0xbd5533b3bd8b66baU, 0xbd1399f23c44cd43U, 0xbddd66ebbd9bcd2aU,
  0xbd8b66babd1399f2U, 0xbe618087bd033382U, 0xbdc4cd43bddd66ebU, 0xbe304d36be1fe6c6U,
  0xbc8333823e0b66baU, 0x3da40062bd9399f2U, 0x3d240062bdb466d2U, 0xbed11a173da40062U,
  0xbcc4cd43U, 0xbdf600933d8b66baU, 0xbb8333823dac339aU, 0x3d240062be7e33cbU,
  0x3c44cd433d240062U, 0xbc033382U, 0xbd3466d23db466d2U, 0xbe3466d2be3c9a0bU,
  0x3b8333823d760093U, 0xbe1fe6c63db466d2U, 0xbd9bcd2abe48e6dfU, 0x3d9399f23ddd66ebU,
  0xbd5533b33d44cd43U, 0xbe511a17bd8b66baU, 0x3dd533b3be1399f2U, 0xbe6dcd5bbdc4cd43U,
  0x3e033382bdd533b3U, 0xbde59a233e033382U, 0x3e0f80563e240062U, 0x3e8f8056bf022d1bU,
  0x3dcd007b3e4d007bU, 0x3ca40062bcc4cd43U, 0x3d659a233e511a17U, 0x3d760093bd8b66baU,
  0x3d44cd43bdb466d2U, 0xbdfe33cb3e4d007bU, 0xbe0333823ca40062U, 0x3d7600933df60093U,
  0x3d44cd433e6dcd5bU, 0xbdfe33cb3d033382U, 0x3d5533b3bd3466d2U, 0xbeaa26cc3e2c339aU,
  0x3e074d1ebe033382U, 0xbee59a233dc4cd43U, 0x3da400623df60093U, 0x3e9fe6c6beb466d2U,
  0xbdbc9a0b3e240062U, 0xbca40062bc833382U, 0xbd1399f23de59a23U, 0x3d5533b3be240062U,
  0xbc833382bd9bcd2aU, 0xbd5533b33eac339aU, 0x3d2400623e074d1eU, 0xbce59a233e2c339aU,
  0x3d7600933e1399f2U, 0xbdedcd5b3d1399f2U, 0x3e8b66ba3d033382U, 0xbe9dd9f83e17b38eU,
  0x3d6ab5cc3dbd1272U, 0x3d77bfe5bda2fe3fU, 0xbcb68d663e0264ffU, 0xbd88ea0cbec538c2U,
  0x3c8264ff3c9c7932U, 0x3e0f6f19bd43977fU, 0x3df7bfe53b50a199U, 0x3de430bf3c1c7932U,
  0x3c50a1993d43977fU, 0x3d29834c3df13ad8U, 0xbe1fbbb9be50a199U, 0x3de430bfbda2fe3fU,
  0x3d50a199bdc3977fU, 0xbc9c79323de430bfU, 0x3e15f4263df13ad8U, 0x3e3d12723d0264ffU,
  0xbdfe44f2be0f6f19U, 0xbeb008593e4a1c8cU, 0xbc50a1993e6430bfU, 0x3d0f6f19becf0055U,
  0x3d6ab5cc3c8264ffU, 0xbd8264ff3d50a199U, 0x3da2fe3f3e12b19fU, 0xbceab5cc3d368d66U,
  0xbd29834cbd1c7932U, 0xbea2fe3f3e39cfecU, 0xbc9c7932be5dabb2U, 0xbe1fbbb93dd726a5U,
  0x3d43977f3df7bfe5U, 0xbe1fbbb9bdf7bfe5U, 0x3d0f6f193db00859U, 0xbea9834cbe22fe3fU,
  0x3da9834c3ceab5ccU, 0xbd1c79323cd0a199U, 0xbc9c79323df13ad8U, 0xbe0264ffbe368d66U,
  0xbd8f6f193d50a199U, 0xbc9c7932bdb68d66U, 0xbd368d663d368d66U, 0xbe1c7932bd368d66U,
  0xbd9c7932bd77bfe5U, 0x3cd0a1993d8f6f19U, 0xbd88ea0cbe0264ffU, 0x3dca1c8c3db00859U,
  0xbd43977fbdb00859U, 0x3d0f6f193d6ab5ccU, 0xbe0264ffbd9c7932U, 0xbd1c79323da2fe3fU,
  0xbd5dabb23d8264ffU, 0xbc8264ffbd6ab5ccU, 0x3d77bfe5bd50a199U, 0xbd95f426bea9834cU,
  0xbd95f4263cd0a199U, 0x3c1c7932bd9c7932U, 0xbd9c7932be46da05U, 0xbe747d5fbd8f6f19U,
  0xbbd0a199bd0264ffU, 0x3cd0a199bd6ab5ccU, 0xbe2640c600000000U, 0x3db00859bda2fe3fU,
  0xbdbd12723d43977fU, 0x3d50a199bcd0a199U, 0x3de430bfbd50a199U, 0xbd77bfe5be0264ffU,
  0x3c9c7932bd1c7932U, 0xbe5a692cbd88ea0cU, 0x3df7bfe5be0c2c93U, 0x3df13ad8beae6716U,
  0xbd0f6f19bcb68d66U, 0xbbd0a1993d5dabb2U, 0xbc50a199bdddabb2U, 0xbcb68d663d368d66U,
  0x3d5dabb2bdd0a199U, 0xbd77bfe5bcb68d66U, 0xbe5726a53dca1c8cU, 0xbe300859bdb00859U,
  0x3d0264ff3da2fe3fU, 0x3e0c2c933d6ab5ccU, 0x3db68d663cd0a199U, 0xbe88ea0c3df13ad8U,
  0xbda9834c3d9c7932U, 0xbdeab5cc3e0f6f19U, 0x3cd0a1993da2fe3fU, 0x3d29834cbe85a786U,
  0xbc1c7932bd77bfe5U, 0xbcb68d663d8f6f19U, 0x3d368d66bc1c7932U, 0x3e9936ac3e1c7932U,
  0x3bd0a199bceab5ccU, 0x3e22fe3f3df13ad8U, 0x3d77bfe53e300859U, 0x3c8264ff3dd726a5U,
  0x3d8f6f193d88ea0cU, 0x3e334adf3d9c7932U, 0x3d368d663d43977fU, 0xbd1c79323db68d66U,
  0xbe0f6f193c50a199U, 0xbb50a199bd50a199U, 0xbd88ea0cbdfe44f2U, 0xbe2cc5d2be80c3bcU,
  0x3ceab5ccbceab5ccU, 0x3d88ea0c3da9834cU, 0x3db00859bdf7bfe5U, 0x3d8264ff3dbd1272U,
  0x3dc3977fbd43977fU, 0xbd0264ffbd95f426U, 0xbd43977fbd368d66U, 0xbe46da053c9c7932U,
  0x3d9c7932bd8264ffU, 0xbdca1c8cbcb68d66U, 0xbe1936acbdbd1272U, 0xbe0f6f193d0264ffU,
  0xbe368d66bdf7bfe5U, 0xbebb712f3c50a199U, 0xbe46da053d6ab5ccU, 0xbda9834cbe29834cU,
  0x3d6ab5ccbceab5ccU, 0x3dd726a53e0f6f19U, 0x3d88ea0cbd88ea0cU, 0x3e1c79323e29834cU,
  0xbcd0a1993c8264ffU, 0xbe0264ff3d29834cU, 0x3e29834cbdbd1272U, 0xbe5a692c3d29834cU,
  0x3c50a199bda2fe3fU, 0xbe677345bd0264ffU, 0xbd29834c3dc3977fU, 0xbda9834c3c50a199U,
  0xbdc3977f3c9c7932U, 0xbceab5cc3e43977fU, 0xbd6ab5cc3d43977fU, 0xbd5dabb2bd1c7932U,
  0xbd50a199bd368d66U, 0xbd8264ffbdb68d66U, 0xbdc3977f3d8f6f19U, 0x3da2fe3fbcb68d66U,
  0xbdb68d663df13ad8U, 0xbe0f6f193ceab5ccU, 0x3e3d1272be12b19fU, 0xbe08ea0c3cb68d66U,
  0xbe1936acbb50a199U, 0xbd88ea0cbdca1c8cU, 0xbdf13ad83d8264ffU, 0xbe5dabb2bd8264ffU,
  0xbdd8af9dbe107513U, 0xbe0353293db7dad2U, 0xbe93bd8e3bd21ea7U, 0x3d44fcbdbcec627cU,
  0xbc521ea7bd035329U, 0xbdc4fcbdbcb7dad2U, 0x3d1d96febd1d96feU, 0x3c9d96fe3cd21ea7U,
  0xbdd8af9dbdc4fcbdU, 0xbe4b8db23cd21ea7U, 0x3dbe6bc8bd5f4092U, 0xbdd21ea7bd5f4092U,
  0x3db7dad2bdcb8db2U, 0xbda427f3bdec627cU, 0xbc8353293d44fcbdU, 0xbdd8af9dbd44fcbdU,
  0x3c521ea700000000U, 0xbdd21ea7bc835329U, 0xbe1d96fe3d37dad2U, 0xbe921950bd6c627cU,
  0x3cb7dad2bd44fcbdU, 0xbdb149ddbc835329U, 0xbdaab8e8bd1d96feU, 0x3b521ea7bdf2f372U,
  0xbd835329bb521ea7U, 0x3d37dad23cb7dad2U, 0xbd89e41ebdec627cU, 0xbdc4fcbd3c835329U,
  0xbd44fcbdbe89e41eU, 0x3d835329bbd21ea7U, 0xbe2ab8e8be170608U, 0xbd9d96febe93bd8eU,
  0x3cd21ea7bdaab8e8U, 0xbd970608bd835329U, 0xbd37dad23da427f3U, 0xbd521ea73d521ea7U,
  0xbd89e41e3c835329U, 0x3cd21ea73d907513U, 0x3d521ea7bd521ea7U, 0x3dd8af9d3d521ea7U,
  0xbdd8af9d3d521ea7U, 0x3c835329U, 0xbd107513bdb7dad2U, 0xbdc4fcbdbdb7dad2U,
  0xbc9d96febdec627cU, 0xbdec627cbd107513U, 0x3dd8af9d3cec627cU, 0xbe3b234dbd907513U,
  0xbd1075133d1d96feU, 0x3dbe6bc83d44fcbdU, 0x3d89e41ebd1d96feU, 0xbdc4fcbd3d89e41eU,
  0xbde5d187be691a02U, 0xbdb149ddbe5bf817U, 0xbe1a4e83bda427f3U, 0xbd9d96febe1d96feU,
  0xbe2e0163bd1d96feU, 0x3d035329be8ed0d6U, 0x3c1d96febdcb8db2U, 0xbdf98467bcec627cU,
  0xbe970608bd107513U, 0x3b521ea7bdec627cU, 0xbe3b234dbda427f3U, 0x3dd21ea7bdb149ddU,
  0x3d9706083d835329U, 0x3d9d96fe3e2e0163U, 0x3dcb8db2bd521ea7U, 0x3dc4fcbd3cb7dad2U,
  0x3c521ea7be13bd8eU, 0xbd5f4092bd907513U, 0xbc1d96fe3d970608U, 0x3e37dad2bbd21ea7U,
  0xbdcb8db2bdec627cU, 0x3db7dad23d107513U, 0xbe1d96fe3d2ab8e8U, 0x3e107513bd1d96feU,
  0xbd2ab8e83d6c627cU, 0x3b521ea7bbd21ea7U, 0x3e20df783e170608U, 0x3e0353293df98467U,
  0xbcd21ea7be000aaeU, 0xbdbe6bc83d107513U, 0xbdbe6bc83c521ea7U, 0x3d2ab8e8bdf2f372U,
  0xbd521ea7bdf2f372U, 0xbe09e41ebe1a4e83U, 0xbdbe6bc83c9d96feU, 0x3e2e0163bd1d96feU,
  0xbe41b4423d2ab8e8U, 0xbe4b8db23d2ab8e8U, 0x3df2f372bc521ea7U, 0x3df984673e58af9dU,
  0x3d1d96febda427f3U, 0xbe62890cbe4ed62dU, 0x3d0353293e170608U, 0xbe4ed62dbe1a4e83U,
  0x3e7984673dc4fcbdU, 0x3e8b885bbe62890cU, 0x3cd21ea7be09e41eU, 0xbe3149dd3d6c627cU,
  0xbd970608bd521ea7U, 0x3d035329bdf98467U, 0xbc1d96febe7ccce1U, 0xbd6c627c3d37dad2U,
  0xbe1d96febdec627cU, 0x3e069ba3be069ba3U, 0xbe4b8db2bdb149ddU, 0x3d37dad2bec6a0faU,
  0xbdf98467be3e6bc8U, 0xbd8353293d035329U, 0xbe035329bd521ea7U, 0x3e62890cbd798467U,
  0x3c9d96fe3c521ea7U, 0x3e41b442bc835329U, 0x3dd8af9dbdb149ddU, 0x3e0353293c521ea7U,
  0xbd5f40923cb7dad2U, 0xbd6c627c3da427f3U, 0x3c1d96febdc4fcbdU, 0x3d521ea73d970608U,
  0xbdf2f3723c1d96feU, 0x3d970608be41b442U, 0x3d107513bd970608U, 0x3de5d187be13bd8eU,
  0xbcec627c3cec627cU, 0x3d37dad2bc521ea7U, 0x3df984673e556722U, 0x3df984673d44fcbdU,
  0xbe556722bebcc78aU, 0xbdf2f3723d44fcbdU, 0xbe3b234dbd5f4092U, 0x3dbe6bc83da427f3U,
  0xbe3e6bc8bd9d96feU, 0xbe970608be9d96feU, 0xbe5567223daab8e8U, 0x3d521ea7be691a02U,
  0xbe8b885bbe170608U, 0xbed07a6abdd8af9dU, 0x3dbe6bc8bd521ea7U, 0xbb521ea73bd21ea7U,
  0xbe09e41ebc835329U, 0xbe41b442bec9e975U, 0x3cec627cbcd21ea7U, 0xbe9a4e83be107513U,
  0xbe02711bbe3f508eU, 0xbd85572c3d67e585U, 0x3cff1612be99a1a8U, 0xbd8b23503df37dccU,
  0xbde21962be56811bU, 0xbe56811bbe5c4d3eU, 0xbe7949ef3bb9846aU, 0xbe05572cbe67e585U,
  0xbe4ae8d4be3f508eU, 0xbdf949efbe6db1a8U, 0xbd8b23503c67e585U, 0xbe4802c3bcff1612U,
  0xbe7097babdf949efU, 0x3ddc4d3ebe85572cU, 0xbe6db1a8be95488eU, 0xbdf37dccbd67e585U,
  0xbe05572cbdf37dccU, 0xbe86ca353e0e0961U, 0x3db3b847bd85572cU, 0x3dff1612bd2253ddU,
  0xbde7e585be4ae8d4U, 0xbe2539efbe3f508eU, 0xbeb811613da253ddU, 0xbe0b2350be42369fU,
  0xbe9dfac3bea99309U, 0xbe2253ddbcd0b4f8U, 0xbbb9846a3d737dccU, 0xbe42369f3e4dcee6U,
  0xbe3f508ebd5c4d3eU, 0xbc67e585be7c3001U, 0xbd96bb96be96bb96U, 0xbd50b4f83de21962U,
  0xbdc51cb1be4ae8d4U, 0xbe2820003dd0b4f8U, 0xbd16bb963d0b2350U, 0x3dc51cb1be2b0612U,
  0xbde21962be39846aU, 0xbe451cb1be7f1612U, 0xbe7c30013e19a1a8U, 0xbe3f508ebe59672dU,
  0xbe3f508ebe86ca35U, 0xbe0b23503d9c87baU, 0x3d96bb963cb9846aU, 0xbdd0b4f83e7663ddU,
  0xbe282000be0e0961U, 0x3d451cb1bd451cb1U, 0xbe0b2350be7097baU, 0xbd7f1612be1f6dcbU,
  0x3ca253dd3de21962U, 0x3e82711bbe2253ddU, 0x3cb9846abdf949efU, 0xbe0b23503d67e585U,
  0x3c67e585bd8b2350U, 0xbd50b4f8bd451cb1U, 0xbe19a1a8be82711bU, 0xbdd0b4f8bd96bb96U,
  0xbe13d585be10ef73U, 0x3dff1612be56811bU, 0xbea820003d8b2350U, 0xbdb3b847bea0e0d4U,
  0xbd50b4f8be13d585U, 0x3e13d585bda82000U, 0xbdd0b4f8be6acb97U, 0x3e59672dbd7f1612U,
  0x3d451cb13ca253ddU, 0xbd16bb96bda82000U, 0x3d90ef73bdb9846aU, 0x3d90ef73bda253ddU,
  0x3b39846a3d7f1612U, 0x3b39846a3d451cb1U, 0xbd50b4f8bd90ef73U, 0xbd67e5853d96bb96U,
  0xbd85572cbd451cb1U, 0xbb39846a3cd0b4f8U, 0xbe3f508e3d90ef73U, 0xbdcae8d43c67e585U,
  0x3cff16123b39846aU, 0x3db9846abcb9846aU, 0xbdd0b4f8be0b2350U, 0x3d67e5853dc51cb1U,
  0x3d2253dd3d90ef73U, 0xbbb9846abd737dccU, 0x3eac791bbcff1612U, 0x3e39846abd96bb96U,
  0x3ca253dd3dd0b4f8U, 0xbc0b23503b39846aU, 0xbde7e585bd96bb96U, 0xbd16bb96bd39846aU,
  0xbbb9846abdb3b847U, 0x3d90ef73bc67e585U, 0xbe8e09613e4ae8d4U, 0xbe083d3e3dadec24U,
  0x3dff16123dcae8d4U, 0x3db9846abd451cb1U, 0x3d2253ddbdf37dccU, 0xbcb9846a3e4dcee6U,
  0x3d451cb13df37dccU, 0x3e13d585bde7e585U, 0x3cb9846abddc4d3eU, 0x3cd0b4f83ca253ddU,
  0xbbb9846abc67e585U, 0x3c8b23503d39846aU, 0xbd16bb96bd9c87baU, 0xbce7e5853ce7e585U,
  0xbd16bb96bd85572cU, 0x3dc51cb1be19a1a8U, 0xbd7f16123d16bb96U, 0x3dbf508ebe2b0612U,
  0x3d737dccbc39846aU, 0xbd5c4d3e3d16bb96U, 0x3d0b23503d5c4d3eU, 0x3e2dec243ca253ddU,
  0xbde7e585bdb9846aU, 0xbdb9846a3cff1612U, 0xbe083d3e3c67e585U, 0xbd2dec24be30d235U,
  0x3d737dccbd2253ddU, 0x3cff16123d7f1612U, 0x3d5c4d3e3dedb1a8U, 0xbdb3b847bc8b2350U,
  0x3db9846a3cd0b4f8U, 0xbd8b23503d8b2350U, 0x3ca253ddbd737dccU, 0x3ddc4d3e3d5c4d3eU,
  0xbdcae8d4be02711bU, 0xbde7e5853d39846aU, 0xbd451cb1bdff1612U, 0xbca253dd3b39846aU,
  0x3d16bb96bddc4d3eU, 0xbdd6811b3e05572cU, 0x3cd0b4f83e33b847U, 0x3bb9846abe7f1612U,
  0x3d451cb13d2253ddU, 0x3d451cb1bcff1612U, 0xbd50b4f83e7c3001U, 0xbd96bb963cb9846aU,
  0x3ddc4d3ebda82000U, 0xbcd0b4f83e2dec24U, 0x3c67e5853dcae8d4U, 0x3d50b4f83e4dcee6U,
  0xbd0b2350bd451cb1U, 0xbe2dec243ca253ddU, 0xbdedb1a8be10ef73U, 0xbe0b23503d67e585U,
  0xbdc8788abe75676bU, 0xbe92e591be1efe7fU, 0x3ddd3590bde41f3cU, 0x3e59c0b9be1efe7fU,
  0xbd25e82c3e37305bU, 0xbe1814d3bdacd1d8U, 0xbcf8dc42be0a417aU, 0xbe819d62be1814d3U,
  0xbd418ede3cdd3590U, 0xbe8db650bddd3590U, 0xbdc8788a3dbaa531U, 0xbec503b4be149ffcU,
  0xbd9814d33d6b08e9U, 0xbe78dc42bc5d3590U, 0xbca5e82c3c5d3590U, 0xbe949ffcbcf8dc42U,
  0x3d4f6237bde41f3cU, 0x3d8a417abe78dc42U, 0xbc8a417a3da5e82cU, 0x3e75676bbe4bed60U,
  0xbe33bb85be3aa531U, 0xbe149ffcbe8db650U, 0xbea95d02be564be3U, 0xbe5d3590be52d70dU,
  0xbe52d70dbe71f295U, 0x3cdd3590bb5d3590U, 0xbe8f70bbbd1814d3U, 0x3d8357cdbe949ffcU,
  0xbe418ede3b5d3590U, 0xbd4f6237bdb3bb85U, 0x3da5e82cbd9efe7fU, 0x3de41f3c3b5d3590U,
  0x3e4503b43dbaa531U, 0x3e1b89a9bdd64be3U, 0xbdc18ede3de41f3cU, 0x3c5d3590be418edeU,
  0x3c25e82c3d912b26U, 0x3dbaa5313e37305bU, 0x3e1b89a9be25e82cU, 0xbe2273553dcf6237U,
  0x3c25e82c3dcf6237U, 0x3d0a417a3dc8788aU, 0xbec8788abde41f3cU, 0x3dc8788abe4503b4U,
  0x3de41f3cbdacd1d8U, 0xbc25e82c3dc8788aU, 0x3e1b89a93dc8788aU, 0x3dc18edebcf8dc42U,
  0xbdcf62373c8a417aU, 0xbe52d70d3dbaa531U, 0x3dc8788a00000000U, 0x3ddd3590be1b89a9U,
  0x3d8a417a3d8357cdU, 0xbb5d3590bcc18edeU, 0x3dacd1d8bc5d3590U, 0x3d8357cd3d25e82cU,
  0xbc8a417a3c25e82cU, 0xbc5d359000000000U, 0xbcf8dc42bb5d3590U, 0xbd912b26bca5e82cU,
  0xbc25e82c3d33bb85U, 0x3cf8dc42bb5d3590U, 0x3e1814d33e112b26U, 0xbdf1f295bd78dc42U,
  0x3d1814d3bd6b08e9U, 0x3e1814d3bd78dc42U, 0xbdc8788a3db3bb85U, 0x3e4503b4bdffc5eeU,
  0xbdb3bb85bd4f6237U, 0xbdc18edebdb3bb85U, 0xbe4bed60bd33bb85U, 0xbd912b26bd25e82cU,
  0xbdc18ede3d0a417aU, 0xbd33bb853de41f3cU, 0xbd5d3590bdc18edeU, 0x3d9efe7fbe112b26U,
  0xbdc18ede3e1b89a9U, 0x3c25e82cbd8a417aU, 0x3e2cd1d83c5d3590U, 0xbd5d3590bd5d3590U,
  0x3e5d35903e0357cdU, 0x3d912b26be5d3590U, 0xbbdd35903d912b26U, 0xbc5d3590be819d62U,
  0x3ca5e82c3e0357cdU, 0x3ddd3590bc5d3590U, 0x3da5e82cbe1b89a9U, 0xbec18ede3d0a417aU,
  0xbc5d35903dbaa531U, 0x3e1814d33df1f295U, 0xbed8064ebe1814d3U, 0x3dd64be3be418edeU,
  0xbca5e82c3d9814d3U, 0x3d418ede3dacd1d8U, 0x3da5e82cbd1814d3U, 0x3e0357cdbdeb08e9U,
  0xbbdd35903c8a417aU, 0xbd78dc423ca5e82cU, 0xbd0a417abd25e82cU, 0x3d6b08e9bd33bb85U,
  0x3ca5e82cbdc18edeU, 0x3d9efe7fbcdd3590U, 0x3d8a417abdcf6237U, 0x3d1814d3bd4f6237U,
  0xbb5d35903bdd3590U, 0xbd0a417abdacd1d8U, 0x3deb08e9bd5d3590U, 0x3d25e82cbd912b26U,
  0x3cdd35903e0a417aU, 0x3bdd35903d9efe7fU, 0x3dbaa5313cc18edeU, 0x3c5d35903ca5e82cU,
  0xbd1814d3bca5e82cU, 0xbc25e82cbdb3bb85U, 0xbcc18ede3d418edeU, 0x3e0db650be851238U,
  0xbd912b263c5d3590U, 0xbdacd1d83cdd3590U, 0xbd9efe7fbbdd3590U, 0xbdc18edebc8a417aU,
  0xbbdd3590bd9efe7fU, 0xbd1814d3bc25e82cU, 0xbd9814d3bd78dc42U, 0x3d25e82cbd9814d3U,
  0x3b5d35903c25e82cU, 0xbd5d3590bd1814d3U, 0x3e1efe7f3cc18edeU, 0x3cc18edebd912b26U,
  0x3e949ffc3dffc5eeU, 0x3ddd3590bd1814d3U, 0xbca5e82c3e1814d3U, 0x3d0a417abe5d3590U,
  0xbcdd35903bdd3590U, 0x3c5d35903cc18edeU, 0xbd8357cdbe0a417aU, 0xbec6be1fbd9efe7fU,
  0x3d912b263cf8dc42U, 0x3e1814d33e1efe7fU, 0xbedb7b24bd8a417aU, 0x3e25e82cbe0db650U,
  0xbd912b263da5e82cU, 0x3de41f3c3d418edeU, 0xbca5e82cbe0357cdU, 0x3de41f3cbd9814d3U,
  0x3cb0dcd4bdca20f3U, 0xbd3d7ee3be5071faU, 0xbe07ce233b4a20f3U, 0x3d84a59fbcb0dcd4U,
  0xbdd6c302bddd1409U, 0xbd9798b6bdfca92fU, 0xbe603c8dU, 0x3cfca92fbdbd7ee3U,
  0xbc9798b63c4a20f3U, 0xbe0e1f2bbdbd7ee3U, 0x3cca20f3U, 0xbdc3cfebbdc3cfebU,
  0xbdbd7ee3bd7ca92fU, 0xbdf65828bd3d7ee3U, 0xbdb72ddcbdb0dcd4U, 0xbcca20f3bd7ca92fU,
  0xbd3d7ee3bd84a59fU, 0xbd3d7ee3bdf65828U, 0x3c9798b6be7980abU, 0xbde365113da43ac5U,
  0xbda43ac5be1ac13aU, 0xbe5071fabdd071faU, 0xbe07ce23be43cfebU, 0xbd8af6a7be40a767U,
  0xbdb72ddcbd8af6a7U, 0x3d243ac5be2a8bcdU, 0xbd8af6a73d0af6a7U, 0xbe40a7673bca20f3U,
  0x3c7ca92f3c7ca92fU, 0x3bca20f3bdf00720U, 0xbda43ac5bdf65828U, 0x3da43ac5bd700720U,
  0x3b4a20f33d8af6a7U, 0x3c4a20f3be59eb86U, 0x3e211241be40a767U, 0x3bca20f33e340558U,
  0xbd9798b63c1798b6U, 0x3cfca92f3d7ca92fU, 0xbdd6c302be1798b6U, 0xbdfca92fbd1798b6U,
  0xbcfca92fbe5d1409U, 0x3d4a20f3be4a20f3U, 0xbe7fd1b33e0e1f2bU, 0x3b4a20f3be3d7ee3U,
  0xbe147032bcca20f3U, 0x3d700720bd636511U, 0xbe0af6a7be4d4976U, 0x3ddd14093e340558U,
  0x3c1798b63cca20f3U, 0x3c4a20f3be30dcd4U, 0xbc1798b6be04a59fU, 0xbdd071fabcca20f3U,
  0xbd4a20f3bdb0dcd4U, 0xbd0af6a7bd4a20f3U, 0xbce36511be1ac13aU, 0xbe1de9bebda43ac5U,
  0xbe1798b6bb4a20f3U, 0x3b4a20f3be04a59fU, 0xbe211241bdc3cfebU, 0xbe700720U,
  0xbe147032bd9147aeU, 0xbb4a20f33cb0dcd4U, 0xbd0af6a7be04a59fU, 0xbbca20f3bdf65828U,
  0x3dd6c3023c9798b6U, 0x3e1147ae3e30dcd4U, 0x3b4a20f3bd9798b6U, 0xbe017d1b3c9798b6U,
  0x3c1798b6bd30dcd4U, 0xbdb72ddc3c7ca92fU, 0x3d56c3023cca20f3U, 0x3bca20f33db72ddcU,
  0xbd7ca92fbdfca92fU, 0xbc7ca92f3dd071faU, 0xbde9b6193d700720U, 0x3daa8bcd3d56c302U,
  0xbc1798b6U, 0xbd1798b63c4a20f3U, 0xbde36511bc9798b6U, 0x3dca20f3bc4a20f3U,
  0x3c1798b63d9798b6U, 0x3dd6c3023de9b619U, 0x3d84a59fbd4a20f3U, 0xbda43ac5be9f7dffU,
  0x3d243ac53de36511U, 0x3d84a59f3d7ca92fU, 0x3d0af6a73d7ca92fU, 0x3e43cfeb3bca20f3U,
  0xbcca20f33d9798b6U, 0x3bca20f33e017d1bU, 0x3e30dcd43d243ac5U, 0x3b4a20f33e636511U,
  0x3ddd1409bdfca92fU, 0xbd0af6a73d30dcd4U, 0xbd700720bc9798b6U, 0x3e04a59f3dbd7ee3U,
  0xbcca20f33d56c302U, 0xbda43ac5be07ce23U, 0x3dd071fabc1798b6U, 0x3d8af6a73c9798b6U,
  0xbd8af6a7bc7ca92fU, 0x3dbd7ee33da43ac5U, 0x3c1798b6be276349U, 0x3d243ac53d9de9beU,
  0xbd7007203d0af6a7U, 0x3d30dcd4bdb0dcd4U, 0xbd3d7ee33b4a20f3U, 0x3c7ca92f00000000U,
  0x3d0af6a7bd7ca92fU, 0x3de365113d56c302U, 0x3daa8bcdbd3d7ee3U, 0xbd9798b63d9de9beU,
  0xbe243ac5bb4a20f3U, 0xbe7fd1b33e07ce23U, 0xbd636511bd0af6a7U, 0xbe2db4503ce36511U,
  0xbce36511bd4a20f3U, 0xbdbd7ee3bdc3cfebU, 0x3d4a20f33d9798b6U, 0xbc7ca92fbdca20f3U,
  0xbd30dcd43d4a20f3U, 0xbdf00720be1147aeU, 0xbe07ce233c9798b6U, 0x3c7ca92f3d56c302U,
  0xbd9de9bebdb72ddcU, 0xbe1798b6bd3d7ee3U, 0xbdfca92fbcb0dcd4U, 0xbe30dcd43d30dcd4U,
  0xbe30dcd4be7ca92fU, 0xbe9ac13abd56c302U, 0xbd4a20f3bde9b619U, 0xbda43ac53d636511U,
  0xbdca20f3bdb72ddcU, 0xbdca20f3be017d1bU, 0xbd9798b6bcca20f3U, 0xbcca20f3bd9147aeU,
  0xbdb72ddcbddd1409U, 0xbe4a20f3be017d1bU, 0xbd700720bdf00720U, 0xbdaa8bcdbd7ca92fU,
  0xbc7ca92fbcfca92fU, 0xbe46f86fbe243ac5U, 0xbd1798b6bd8af6a7U, 0xbec88cb1bd8af6a7U,
  0xbe739e26bded86ffU, 0xbe36b69dbdaa884eU, 0x3de158b0be99c8a2U, 0x3e953744bdcf133aU,
  0x3cdb41893ddb4189U, 0x3bc2e4eb3cc2e4ebU, 0x3dbccdc4bd7fcc75U, 0xbe42e4ebbcc2e4ebU,
  0x3e0f201d3e216593U, 0xbdf39e26be7cc0e1U, 0xbd5b4189bc42e4ebU, 0xbea16593bd05fd62U,
  0xbb42e4eb3e05fd62U, 0xbdf9b54ebcf39e26U, 0x3e552a623d676fd8U, 0xbd2a884e3c42e4ebU,
  0x3e0f201dbe552a62U, 0xbc122bb13b42e4ebU, 0xbe2d93e2bd7fcc75U, 0x3d9842d8bbc2e4ebU,
  0x3d05fd62bc739e26U, 0xbe0c14893d4f133aU, 0xbbc2e4ebbd739e26U, 0xbdbccdc4bd122bb1U,
  0xbd5b4189bdaa884eU, 0xbe45f07fbdffcc75U, 0xbd2a884ebdbccdc4U, 0x3db6b69dbe02f1ceU,
  0xbcf39e26bd85fd62U, 0xbdf9b54ebd05fd62U, 0x3cf39e263d1e59ffU, 0xbe309f75bdbccdc4U,
  0x3d42e4ebbc42e4ebU, 0x3d1e59ffbc922bb1U, 0xbd9e59ffbd676fd8U, 0x3bc2e4eb3cf39e26U,
  0x3d7fcc753d9842d8U, 0xbd922bb13d05fd62U, 0xbdd52a62bded86ffU, 0x3cdb41893cf39e26U,
  0xbcf39e263cdb4189U, 0x3d9e59ff3d8c1489U, 0xbe1537443d2a884eU, 0x3db09f753c42e4ebU,
  0xbcdb41893bc2e4ebU, 0x3d4f133abcaa884eU, 0xbdaa884ebdb6b69dU, 0x3d42e4ebbdb09f75U,
  0x3c122bb1bc42e4ebU, 0x3d85fd62be36b69dU, 0x3dbccdc4be3ccdc4U, 0x3e153744bdb09f75U,
  0x3c922bb13dcf133aU, 0x3dbccdc43e122bb1U, 0x3dc8fc13be6a7b6bU, 0x3d122bb13e1b4e6cU,
  0x3d739e263e5b4189U, 0xbcf39e26be153744U, 0x3db6b69dbc42e4ebU, 0x3d676fd8bd8c1489U,
  0x3dd52a623d676fd8U, 0xbe1842d83d122bb1U, 0x3e521ece3e2a884eU, 0x3de76fd8bd8c1489U,
  0x3d9e59ffbe2a884eU, 0x3e216593bde76fd8U, 0xbcc2e4ebbd36b69dU, 0xbd9e59ff3caa884eU,
  0x3c922bb1bde158b0U, 0xbe39c2303d1e59ffU, 0xbd36b69dbe216593U, 0xbc122bb1bda47127U,
  0xbd05fd623cdb4189U, 0x3cdb41893d5b4189U, 0x3d5b4189bdaa884eU, 0x3dc8fc13bdcf133aU,
  0x3dbccdc4bda47127U, 0xbc42e4ebbdb6b69dU, 0x3cc2e4ebbd739e26U, 0x3d7fcc75bd8c1489U,
  0x3c739e263caa884eU, 0xbd922bb1be4c07a7U, 0xbe33ab093d922bb1U, 0xbe36b69dbdd52a62U,
  0x3c42e4eb3bc2e4ebU, 0xbcf39e26bdaa884eU, 0xbd9842d8be5b4189U, 0xbddb41893d1e59ffU,
  0xbcdb4189bdf39e26U, 0x3cdb4189bc739e26U, 0xbd122bb1bd8c1489U, 0x3d676fd8bec15f22U,
  0xbd2a884ebe05fd62U, 0xbdb09f753db09f75U, 0xbd2a884ebdf39e26U, 0xbd2a884ebd85fd62U,
  0xbe90a5e73cc2e4ebU, 0xbd8c1489bd9e59ffU, 0xbeb09f75be7fcc75U, 0xbcdb4189bc122bb1U,
  0x3d36b69dbd739e26U, 0xbe0f201d3c739e26U, 0xbd122bb1bdd52a62U, 0x3e5835f5bd9e59ffU,
  0x3dbccdc43e6158b0U, 0x3d36b69dbeac0e18U, 0x3e85fd62beb83c67U, 0xbe3ccdc43d1e59ffU,
  0x3cdb41893db6b69dU, 0xbd42e4ebbd9842d8U, 0x3c922bb13e2d93e2U, 0xbd05fd62bead93e2U,
  0x3d05fd623d05fd62U, 0x3d9e59ffbdb09f75U, 0xbde158b0bc122bb1U, 0xbe2d93e2bb42e4ebU,
  0xbcaa884ebdf39e26U, 0xbde76fd8bdbccdc4U, 0xbe05fd6200000000U, 0xbe3ccdc43bc2e4ebU,
  0xbe1842d8bded86ffU, 0x3ddb4189bcc2e4ebU, 0x3d36b69dbe2d93e2U, 0x3d36b69dbe36b69dU,
  0xbde158b0bdbccdc4U, 0x3d42e4ebbc42e4ebU, 0xbe6d86ffbe277cbaU, 0x3ded86ffbd36b69dU,
  0x3d739e263bc2e4ebU, 0x3e0c1489be6158b0U, 0xbd922bb13ded86ffU, 0xbe1842d8bdc2e4ebU,
  0xbd739e26bd1e59ffU, 0x3c739e263cf39e26U, 0xbdc2e4ebbe216593U, 0xbe2d93e2bd05fd62U,
  0x3d1e59ffbcaa884eU, 0xbc122bb13d42e4ebU, 0xbeb2253fbd7fcc75U, 0xbc739e26beb83c67U,
  0xbd05fd62bdaa884eU, 0x3db6b69dbcc2e4ebU, 0xbcaa884ebdbccdc4U, 0xbb42e4ebbd2a884eU,
  0x3e200c623e200c62U, 0x3e81901e3e81901eU, 0x3da296bd3e505122U, 0xbe041a79be36e994U,
  0xbde4a3f9bd892f2fU, 0x3c73e21bbe13589bU, 0xbe186d513df8f6d1U, 0x3ca296bdbd411300U,
  0xbcdf8f43bd041a79U, 0x3dbbfe4a3e411300U, 0xbd8e43e53b2296bdU, 0x3e949dc83e13589bU,
  0xbd986d51be10ce40U, 0xbd5f8f43bbf3e21bU, 0xbe5a7a8dbde9b8afU, 0x3e27ab733df3e21bU,
  0xbcf3e21b3cdf8f43U, 0x3dda7a8d3db1d4deU, 0x3d36e9943d73e21bU, 0x3e06a4d43c4b3c6cU,
  0xbda296bdU, 0x3d69b8af3c8e43e5U, 0x3de9b8af3cb6e994U, 0x3dda7a8dbda7ab73U,
  0x3cf3e21b3df8f6d1U, 0xbd9d82073e411300U, 0x3d93589bbe2f4a83U, 0x3e2521183da7ab73U,
  0x3d892f2f3ddf8f43U, 0xbe13589b3cdf8f43U, 0x3db1d4de3ddf8f43U, 0xbdd05122bd2cc028U,
  0xbe804af1be672e54U, 0xbda296bdbd5565d8U, 0xbe31d4debe092f2fU, 0x3d4113003c8e43e5U,
  0xbd8e43e5be9c3cd9U, 0xbe64a3f9be57f033U, 0xbe73e21bbd411300U, 0xbd9d8207be4627b6U,
  0xbe7b812cbde9b8afU, 0xbe2f4a83bddf8f43U, 0xbcdf8f43be1af7acU, 0xbe2f4a83bd73e21bU,
  0xbe4627b6bd0e43e5U, 0xbe505122be4627b6U, 0xbda296bd3d4b3c6cU, 0xbe411300be672e54U,
  0xbdd565d8be06a4d4U, 0xbe2cc0283e5565d8U, 0x3dfe0b873d69b8afU, 0xbd892f2fbd2296bdU,
  0xbd411300bdf3e21bU, 0xbe8bb98abe5d04e8U, 0xbe06a4d43e855fa7U, 0xbda7ab73bdeecd65U,
  0xbe52db7dbdf8f6d1U, 0xbd4113003dd05122U, 0xbdbbfe4a3d2296bdU, 0x3ccb3c6c3d9d8207U,
  0xbe766c76be06a4d4U, 0x3d5f8f43be64a3f9U, 0xbe2cc028be9ec734U, 0xbe8cfeb8bdf3e21bU,
  0x3da7ab73bdacc028U, 0x3cf3e21b3cdf8f43U, 0xbc8e43e53d36e994U, 0xbdc627b6bdacc028U,
  0xbd4b3c6cbd36e994U, 0xbe10ce40bd7e0b87U, 0xbd986d513deecd65U, 0xbb2296bdbd73e21bU,
  0xbe411300be092f2fU, 0xbd69b8af3e01901eU, 0x3ccb3c6cbcf3e21bU, 0x3d5f8f433dfe0b87U,
  0xbd7e0b87bd93589bU, 0x3d041a79bdb1d4deU, 0xbd2cc028bc2296bdU, 0xbcdf8f43be4627b6U,
  0xbd2296bd3c73e21bU, 0xbc8e43e5be3e88a5U, 0x3d36e994bea1518fU, 0xbd041a793ccb3c6cU,
  0xbd186d51be2a35cdU, 0xbd5565d8be52db7dU, 0xbe1af7acbe86a4d4U, 0xbe200c62bd73e21bU,
  0xbdd565d8bd9d8207U, 0x3c4b3c6cbe9ec734U, 0xbba296bdbba296bdU, 0xbe186d51be06a4d4U,
  0xbe766c763c73e21bU, 0x3de4a3f9bd892f2fU, 0x3ba296bdbba296bdU, 0xbd041a79bdcb3c6cU,
  0x3ccb3c6c3b2296bdU, 0xbdb6e994be78f6d1U, 0x3d73e21bbd69b8afU, 0x3ba296bd3e200c62U,
  0xbc73e21b3cf3e21bU, 0x3ca296bd00000000U, 0x3c73e21bbe4b3c6cU, 0x3b2296bd3d7e0b87U,
  0xbd5565d8be01901eU, 0x3cdf8f43bc8e43e5U, 0xbdeecd653d5f8f43U, 0xbdb1d4debdda7a8dU,
  0xbbf3e21bbd411300U, 0x3d5f8f43bd186d51U, 0xbcf3e21bbd8e43e5U, 0xbb2296bd3e15e2f6U,
  0xbdb1d4debd4b3c6cU, 0xbcf3e21bbe092f2fU, 0x3d5f8f43bdc627b6U, 0x3c2296bd3d411300U,
  0xbdacc0283cdf8f43U, 0x3da7ab73bd5565d8U, 0x3d5565d8be505122U, 0x3e06a4d43da7ab73U,
  0xbb2296bdbddf8f43U, 0x3d186d513dacc028U, 0xbe200c623e06a4d4U, 0xbd9d8207bdb1d4deU,
  0x3e06a4d4bde4a3f9U, 0x3dc627b6bdd565d8U, 0xbe041a79bcb6e994U, 0x3ba296bd3ccb3c6cU,
  0xbcf3e21bbd7e0b87U, 0x3c73e21bbe31d4deU, 0xbd841a793c73e21bU, 0xbb2296bd3d93589bU,
  0xbc4b3c6c3d5f8f43U, 0xbb2296bd3d0e43e5U, 0x3d93589bbe0bb98aU, 0x3d8e43e53d69b8afU,
  0xbc2296bdbc4b3c6cU, 0x3da296bd3d2cc028U, 0x3d041a793cf3e21bU, 0x3cf3e21b3c4b3c6cU,
  0x3ba296bdbd69b8afU, 0x3d73e21bbdd05122U, 0x3dc627b63d5565d8U, 0x3ddf8f433df3e21bU,
  0x3d179e313e13d3d6U, 0x3df296b5bc7296b5U, 0xbd179e313c979e31U, 0xbe5fa2ee3d7296b5U,
  0x3dbd85bd00000000U, 0x3e00e0103de36d49U, 0xbd451a73be451a73U, 0xbdccaf283d80e010U,
  0x3c7296b5bbf296b5U, 0x3dc51a73bd8874c6U, 0xbe868f98bb7296b5U, 0x3e3226adbdf296b5U,
  0x3dc51a73be35f107U, 0x3d80e0103e10097bU, 0xbbf296b53d26c79cU, 0x3e3d85bdbe22fd41U,
  0xbd0874c6be10097bU, 0xbe10097bbc35f107U, 0xbcb5f107bd636d49U, 0x3e7a2b6abe00e010U,
  0xbc979e313e26c79cU, 0x3cb5f1073d0874c6U, 0x3c7296b5bd7296b5U, 0x3c979e31bd7296b5U,
  0x3db5f1073e1b688cU, 0xbdf296b5bddbd894U, 0x3e1f32e6be39bb62U, 0xbbf296b5bda6c79cU,
  0x3d80e0103dc51a73U, 0xbe7296b53d451a73U, 0x3e580e393e0c3f20U, 0xbe4caf28be451a73U,
  0x3bf296b5be1f32e6U, 0x3e415018bdfa2b6aU, 0xbe451a73bd26c79cU, 0x3e04aa6b3db5f107U,
  0xbe26c79cbdbd85bdU, 0xbe80e010be22fd41U, 0xbe179e31bdccaf28U, 0xbcd443debe979e31U,
  0xbd451a73bd80e010U, 0xbdb5f107be580e39U, 0xbd5443debdfa2b6aU, 0xbcb5f107be48e4ceU,
  0xbdeb01ff3d179e31U, 0x3d179e31be00e010U, 0xbd35f1073da6c79cU, 0x3e10097bbe6ecc5aU,
  0xbe0874c6bd26c79cU, 0x3d80e0103dd443deU, 0xbddbd894bd0874c6U, 0xbe26c79cbe35f107U,
  0x3c7296b53bf296b5U, 0x3dae5c523e04aa6bU, 0x3c979e313bf296b5U, 0x3de36d493d0874c6U,
  0x3cd443de3da6c79cU, 0xbcf296b5bc979e31U, 0x3e13d3d63c7296b5U, 0x3d26c79c3dccaf28U,
  0x3d5443debc979e31U, 0x3cd443debd35f107U, 0x3dfa2b6a3dccaf28U, 0x3dae5c52bc979e31U,
  0xbe00e010bd7296b5U, 0xbd979e31bd90097bU, 0xbe8e244ebe26c79cU, 0xbd35f107bbf296b5U,
  0x3d636d493db5f107U, 0xbdc51a733cb5f107U, 0x3d179e31bdb5f107U, 0x3e507983bd80e010U,
  0x3d5443de3df296b5U, 0xbe00e010bbf296b5U, 0x3da6c79cbe415018U, 0xbc979e31bd179e31U,
  0x3d179e313dbd85bdU, 0x3d9f32e6be00e010U, 0x3e35f1073e0c3f20U, 0xbc7296b5be8874c6U,
  0x3bf296b53d451a73U, 0x3e04aa6bbebba090U, 0x3b7296b5be6737a4U, 0xbd451a733bf296b5U,
  0xbe1f32e6bdf296b5U, 0x3db5f107bddbd894U, 0xbd8874c6be99835eU, 0xbe0c3f20bc35f107U,
  0xbddbd894be5bd894U, 0x3dfa2b6abebd85bdU, 0xbdae5c52bcb5f107U, 0x3cb5f107bef0b187U,
  0xbe0c3f203db5f107U, 0x3e1b688cbd636d49U, 0xbe9f32e6be1b688cU, 0x3e2e5c52bd0874c6U,
  0xbe0c3f20be22fd41U, 0xbe868f983d979e31U, 0xbe95b903bd0874c6U, 0xbe8a59f33dd443deU,
  0x3d0874c6bd0874c6U, 0xbe0c3f20be1b688cU, 0xbd8874c63e10097bU, 0x3e1b688cbcd443deU,
  0x3d35f1073dbd85bdU, 0xbd5443debd26c79cU, 0x3dfa2b6abe507983U, 0xbe0c3f203d80e010U,
  0x3dd443debd979e31U, 0xbdccaf28be13d3d6U, 0xbd451a733cf296b5U, 0xbdeb01ffbeaa91f7U,
  0xbdd443debe04aa6bU, 0x3e3226adbe10097bU, 0xbe2a91f7bdd443deU, 0xbe00e0103d9f32e6U,
  0xbd26c79cbe22fd41U, 0xbd26c79cbe636d49U, 0xbe5443debd35f107U, 0xbd451a73be13d3d6U,
  0xbde36d49be04aa6bU, 0x3d35f107be8c3f20U, 0x3cb5f107be04aa6bU, 0xbddbd894bddbd894U,
  0xbe4caf28bd979e31U, 0x3cf296b5bdccaf28U, 0xbe5bd894bcb5f107U, 0x3d451a73bddbd894U,
  0x3e0c3f203e1f32e6U, 0x3e1b688cbedfa2eeU, 0xbc7296b5bd451a73U, 0xbe0c3f20bcb5f107U,
  0xbd179e313c35f107U, 0x3db5f107bc35f107U, 0x3c7296b5bece9456U, 0xbddbd894bd451a73U,
  0xbd80e010bdeb01ffU, 0x3e26c79cbe48e4ceU, 0xbe90097bbd7296b5U, 0x3c7296b5be99835eU,
  0xbe26c79cbe00e010U, 0x3e0874c6bc35f107U, 0xbe5443debddbd894U, 0x3e0874c6bc35f107U,
  0xbe6a8368bd9c579bU, 0xbe198ce63d806c88U, 0x3dad17d93e0e6211U, 0x3d1c579bbe27826fU,
  0xbcb2ad433dce9856U, 0x3e3dd8173cf5ae3cU, 0x3d96c2313e08cca7U, 0x3e7878f13d542dc0U,
  0x3dc36d81bcb2ad43U, 0xbd6a8368bda1ed05U, 0x3db2ad433db842adU, 0xbe8b975c3c8601f2U,
  0x3de4edfe3c9c579bU, 0xbbb2ad43bd6a8368U, 0x3bb2ad433da7826fU, 0xbc8601f23e463836U,
  0x3dbdd817bd542dc0U, 0xbdc36d813e4bcda1U, 0x3db2ad433d912cc7U, 0xbd8b975cbe622349U,
  0x3dc902ecbd5f5894U, 0x3c9c579b3d32ad43U, 0x3d96c2313e2fe28eU, 0x3e0b975c3d542dc0U,
  0xbc8601f23dc36d81U, 0xbdb2ad433d542dc0U, 0x3dc902ec00000000U, 0xbe0601f23e0b975cU,
  0xbd1c579b00000000U, 0x3d912cc7bda1ed05U, 0xbd8b975c3d112cc7U, 0x3cdf58943de4edfeU,
  0x3e3577f83d3dd817U, 0xbcdf58943dce9856U, 0x3d806c883e1f2250U, 0x3df5ae3cbe8a3202U,
  0x3cdf58943cb2ad43U, 0x3d9c579b3d8b975cU, 0xbc9c579b3db2ad43U, 0xbe3dd817bd32ad43U,
  0xbd1c579b3d96c231U, 0x3c32ad433e2a4d24U, 0x3d1c579bbdd9c32aU, 0x3cc902ec3d542dc0U,
  0xbc0601f23d912cc7U, 0xbd1c579bbc32ad43U, 0x3d6a8368be16c231U, 0xbe27826f3b32ad43U,
  0xbd6a83683cdf5894U, 0xbd8b975cbc5f5894U, 0xbdce98563cdf5894U, 0xbcf5ae3cbdc902ecU,
  0xbb32ad43bdb842adU, 0x3d3dd8173d75ae3cU, 0x3db2ad433bb2ad43U, 0x3d27826fbd542dc0U,
  0x3d96c231bcdf5894U, 0x3b32ad43bdd42dc0U, 0x3db842adbe6d4e1dU, 0xbe542dc03dc36d81U,
  0x3d4902ec3b32ad43U, 0xbe32ad43bd112cc7U, 0x3cf5ae3c3c9c579bU, 0xbdd42dc0bd112cc7U,
  0xbd9c579bbdb2ad43U, 0x3b32ad43bdc36d81U, 0xbdc902ecbcdf5894U, 0xbcb2ad43bdfb43a6U,
  0xbd96c231bd542dc0U, 0xbdc902ecbd912cc7U, 0x3c9c579bbcb2ad43U, 0xbde4edfe3cb2ad43U,
  0xbd75ae3cbbb2ad43U, 0x3d1c579bbc8601f2U, 0x3d0601f2be436d81U, 0x3dc36d81bd32ad43U,
  0xbe2a4d24bd5f5894U, 0xbdce9856bd9c579bU, 0xbd8601f23c32ad43U, 0xbd96c231be40a2ccU,
  0x3dfb43a63cf5ae3cU, 0x3e7b43a6be436d81U, 0xbe7e0e5b3df018d2U, 0xbe9dbcf5bdf5ae3cU,
  0x3d6a83683d4902ecU, 0x3c9c579b3d96c231U, 0x3d3dd817bdfb43a6U, 0xbe806c88bc9c579bU,
  0x3e08cca7bd0601f2U, 0x3d8b975cbc5f5894U, 0xbe3b0d62be3dd817U, 0x3d4902ecbe67b8b3U,
  0xbdf5ae3cbe3577f8U, 0x3dd9c32a3e16c231U, 0xbd96c231bd806c88U, 0x3e3b0d62bdea8368U,
  0xbcdf5894bd912cc7U, 0xbd8601f23cdf5894U, 0x3bb2ad433d5f5894U, 0x3c5f5894bd912cc7U,
  0xbdb2ad43bdb842adU, 0xbc8601f2bda1ed05U, 0xbdd42dc03dc902ecU, 0xbbb2ad43bda1ed05U,
  0xbd96c231bbb2ad43U, 0x3bb2ad433bb2ad43U, 0xbd8601f23e112cc7U, 0x3e16c231U,
  0xbdce9856bd8601f2U, 0x3e32ad43bda7826fU, 0x3dc36d813cc902ecU, 0xbd112cc7bd3dd817U,
  0xbd8b975cbd112cc7U, 0xbbb2ad43be2d17d9U, 0xbcb2ad433d1c579bU, 0x3e13f77cbd3dd817U,
  0xbd5f5894bd806c88U, 0xbdd42dc0be27826fU, 0xbe24b7babe1c579bU, 0xbe21ed05be59c32aU,
  0xbddf5894bcf5ae3cU, 0xbe13f77cbc5f5894U, 0xbe4bcda1be1f2250U, 0x3d3dd817be4bcda1U,
  0xbe27826fbcb2ad43U, 0xbdea8368bda7826fU, 0x3d8601f2bbb2ad43U, 0xbd4902ecbd75ae3cU,
  0xbbb2ad43bcdf5894U, 0x3e08cca7bd0601f2U, 0xbea8e7c93e56f875U, 0xbe3b0d623c9c579bU,
  0xbd75ae3cbe1c579bU, 0x3d32ad43bbb2ad43U, 0xbd75ae3c3dd9c32aU, 0xbe1c579bbd27826fU,
  0xbcb2ad43be006c88U, 0x3dea83683e27826fU, 0xbe542dc0bea61d14U, 0x3e13f77cbe1c579bU,
  0xbd542dc0be96c231U, 0xbc32ad433dc902ecU, 0xbd542dc0bdc36d81U, 0x3d112cc7beb147e9U,
  0xbc4b4183bd987122U, 0xbd296143be3a5163U, 0x3c878102be0344faU, 0xbde4a9b4be31d953U,
  0xbdd3b993bd4b4183U, 0xbdcb4183bd078102U, 0xbe0ff912bda96143U, 0xbe0ff912bd878102U,
  0xbddc31a4be078102U, 0x3d187122be25253bU, 0xbc4b41833da96143U, 0xbe57f59cbdcb4183U,
  0xbe79d5dcbc878102U, 0x3e1cad2bbdd3b993U, 0xbd6d21c4be1cad2bU, 0x3c4b4183bd878102U,
  0x3db1d9533e0bbd0aU, 0xbc878102be68e5bcU, 0x3e31d953be1cad2bU, 0xbd7e11e4be4f7d8bU,
  0x3ca96143bdf599d4U, 0x3d4b4183bccb4183U, 0x3d8ff912be3e8d6bU, 0x3e79d5dc3e31d953U,
  0x3ca96143bced21c4U, 0x3dba5163be2d9d4bU, 0x3d5c31a43d987122U, 0xbd4b4183be1cad2bU,
  0x3d187122bd4b4183U, 0x3e2961433da96143U, 0xbc078102bc878102U, 0x3df599d43e31d953U,
  0x3ca961433dfe11e4U, 0x3e0ff9123e14351aU, 0xbccb41833ddc31a4U, 0xbc4b4183bed19b8fU,
  0x3c8781023c878102U, 0x3dfe11e4bb878102U, 0x3dc2c9733dba5163U, 0x3e8bbd0a3e4f7d8bU,
  0xbd2961433d6d21c4U, 0x3dcb41833db1d953U, 0x3e25253b3c078102U, 0x3ccb41833dc2c973U,
  0x3d878102bc4b4183U, 0x3c878102bd296143U, 0xbc0781023d6d21c4U, 0x3d0781023df599d4U,
  0xbced21c43d187122U, 0x3e42c973be921716U, 0xbdba5163bca96143U, 0xbe14351abdfe11e4U,
  0x3dba5163bda96143U, 0x3d5c31a43ddc31a4U, 0x3e078102bec7057bU, 0xbda961433e078102U,
  0xbd0781023c4b4183U, 0x3b878102be31d953U, 0xbe7599d4bd296143U, 0x3dc2c973bebe8d6bU,
  0x3ced21c43c4b4183U, 0x3ddc31a43de4a9b4U, 0xbe0ff9123ced21c4U, 0x3d4b41833d6d21c4U,
  0xbe4f7d8b3d987122U, 0xbe0ff912bd4b4183U, 0xbd6d21c4bd4b4183U, 0xbd878102bed7f59cU,
  0x3c878102bdf599d4U, 0x3d07810200000000U, 0x3d4b4183be078102U, 0x3ea0e9333da0e933U,
  0x3d8781023dba5163U, 0xbe078102bc078102U, 0x3ea30737be187122U, 0xbe3e8d6bbdba5163U,
  0x3e187122bd187122U, 0xbe3a5163bd5c31a4U, 0x3e0ff9123ddc31a4U, 0xbccb41833e078102U,
  0x3e8ddb0e3d8ff912U, 0x3e0bbd0a3d987122U, 0x3da0e9333e14351aU, 0xbe187122bec2c973U,
  0xbccb41833ded21c4U, 0x3d5c31a4bced21c4U, 0xbd078102bd4b4183U, 0xbda961433d187122U,
  0xbda96143bd5c31a4U, 0x3dd3b9933dd3b993U, 0x3d7e11e4bd987122U, 0x3e187122bced21c4U,
  0xbd296143bdfe11e4U, 0x3e0ff9123c4b4183U, 0xbe4f7d8bbd8ff912U, 0x3e078102bd3a5163U,
  0x3ca961433dba5163U, 0x3dc2c973be14351aU, 0xbe42c9733d878102U, 0xbdd3b993bef37bd0U,
  0xbdba51633c878102U, 0x3dc2c973bd4b4183U, 0x3b878102bdfe11e4U, 0xbe47057bbc078102U,
  0x3ca961433d3a5163U, 0xbd4b41833e25253bU, 0xbe8126f6becb4183U, 0x3e0ff912bd878102U,
  0x3b8781023d6d21c4U, 0xbead9d4b3d187122U, 0x3e0344fa3d296143U, 0xbe57f59cU,
  0x3de4a9b4be14351aU, 0xbea5253bbd6d21c4U, 0x3ea0e933bd3a5163U, 0x3ead9d4bbef599d4U,
  0xbced21c43e2d9d4bU, 0xbdc2c9733c078102U, 0xbded21c4bd878102U, 0xbea0e933bdf599d4U,
  0x3d2961433dba5163U, 0xbe7e11e43db1d953U, 0xbda0e9333c078102U, 0xbced21c4be47057bU,
  0x3ced21c43ec0ab6fU, 0xbd187122bda96143U, 0x3e296143bca96143U, 0xbf0672003ea30737U,
  0x3da0e9333c4b4183U, 0xbe899f063e0ff912U, 0x3ddc31a43c078102U, 0x3d187122beef3fc8U,
  0xbd0781023c4b4183U, 0x3e0344fabc4b4183U, 0x3ccb41833ddc31a4U, 0x3e1871223dc2c973U,
  0x3d187122bda96143U, 0x3d1871223e25253bU, 0xbe8126f63ddc31a4U, 0x3e1871223d296143U,
  0x3dcb4183bb878102U, 0x3d7e11e43c4b4183U, 0xbd5c31a4bd6d21c4U, 0xbda0e9333e7599d4U,
  0xbe3c4a80bedd21eaU, 0xbe70d65d3dc96d77U, 0x3e90809ebc522f71U, 0x3ea43511bcd22f71U,
  0xbda6658fbe220492U, 0xbe56906fbd40ab7dU, 0xbdd22f713ea8960eU, 0xbe2ac68cbe63b366U,
  0xbe194298be70d65dU, 0xbecdce74bdaf2789U, 0xbe3c4a803eb15808U, 0xbebe7affbc0c1fa1U,
  0xbe6c75603d835da7U, 0x3db7e983bebe7affU, 0xbcd22f71be035da7U, 0xbec50c7a3e07bea4U,
  0xbe1da395bec50c7aU, 0xbe035da7bdc96d77U, 0xbcf5375abdd22f71U, 0x3dfdf9543d8c1fa1U,
  0xbe9fd414be6c7560U, 0xbe97121abeaac68cU, 0xbe9942983d2f2789U, 0xbebe7affbeb15808U,
  0xbe8e5020bea20492U, 0xbe9da395bdaf2789U, 0xbe6c75603e2f2789U, 0xbd2f2789bd522f71U,
  0xbe812d28be5f5269U, 0xbe2ac68cbe97121aU, 0xbd9da395be92b11dU, 0xbe9da3953d0c1fa1U,
  0x3e37e983bd522f71U, 0x3e4dce74bd75375aU, 0xbe97121abc0c1fa1U, 0xbdf5375a3d75375aU,
  0xbdaf2789bd9da395U, 0xbe5f5269be220492U, 0xbdc96d773d1da395U, 0xbeacf70bbd63b366U,
  0xbe194298beb38886U, 0xbdc96d773de3b366U, 0xbeb15808be92b11dU, 0x3e07bea4bde3b366U,
  0xbdf5375abeb7e983U, 0xbe7df954bda6658fU, 0xbe14e19bbe799857U, 0xbd40ab7dbe90809eU,
  0x3e94e19b3d9da395U, 0x3eaac68c3d63b366U, 0x3e7df9543da6658fU, 0x3e035da73d94e19bU,
  0x3b8c1fa13e5f5269U, 0x3e5af16c3ddaf16cU, 0x3dc0ab7d3d522f71U, 0x3d522f713e496d77U,
  0x3cd22f713d9da395U, 0x3d9da3953c0c1fa1U, 0x3d75375a3e681463U, 0x3df5375a3c8c1fa1U,
  0x3d522f713ddaf16cU, 0x3dec7560bc0c1fa1U, 0x3d9da395bc0c1fa1U, 0x3dec75603e9fd414U,
  0xbd9da395bcf5375aU, 0xbd0c1fa1be4dce74U, 0x3da6658fbda6658fU, 0x3e994298bdc96d77U,
  0xbd1da3953b8c1fa1U, 0x3d2f27893d522f71U, 0xbc0c1fa1bdc0ab7dU, 0xbd94e19b3dd22f71U,
  0xbd835da7bc522f71U, 0xbe0c1fa1bea6658fU, 0xbec2dbfc3da6658fU, 0xbd522f71be90809eU,
  0x3cd22f713e3c4a80U, 0xbe37e983bb8c1fa1U, 0x3e496d773dc0ab7dU, 0xbe3c4a803d9da395U,
  0x3e14e19bbe4dce74U, 0x3e10809ebd522f71U, 0xbe6c75603d9da395U, 0xbd1da395bd0c1fa1U,
  0xbcd22f71be3c4a80U, 0xbdf5375abe496d77U, 0xbe8c1fa1bde3b366U, 0xbdf5375abe7df954U,
  0xbe5f5269bdc96d77U, 0x3caf278900000000U, 0xbe14e19bbe10809eU, 0x3e220492be37e983U,
  0xbe220492bdfdf954U, 0xbe496d77bcf5375aU, 0xbd835da7bc8c1fa1U, 0xbc522f71be26658fU,
  0x3ec73cf93e6c7560U, 0x3eec7560be858e25U, 0xbe035da73d94e19bU, 0xbe4dce743db7e983U,
  0x3d8c1fa1bc8c1fa1U, 0x3de3b366bcd22f71U, 0x3d1da395be5f5269U, 0xbe9942983dec7560U,
  0x3dd22f713c8c1fa1U, 0x3e94e19b3d40ab7dU, 0xbe194298bea20492U, 0x3eeea5debeb38886U,
  0x3caf2789bde3b366U, 0xbc0c1fa13e56906fU, 0x3ddaf16c3d63b366U, 0x3e8e5020bd75375aU,
  0x3dc0ab7dbd9da395U, 0x3dc96d77bf012d28U, 0xbcaf2789bef99857U, 0x3e2f2789be338886U,
  0x3cd22f713da6658fU, 0xbd1da3953d9da395U, 0x3d75375abf0b0762U, 0xbe2ac68cbb8c1fa1U,
  0x3cf5375a3e2f2789U, 0xbd8c1fa1bec0ab7dU, 0xbe70d65dbe496d77U, 0x3d94e19bbeba1a02U,
  0x3d835da73dfdf954U, 0xbe92b11d3df5375aU, 0x3eb158083e70d65dU, 0x3dc0ab7dbd522f71U,
  0xbcf5375abd94e19bU, 0x3e0c1fa1be75375aU, 0xbe1da395bda6658fU, 0x3e3c4a803d8c1fa1U,
  0xbd835da7be26658fU, 0xbdec7560be2f2789U, 0xbe522f71bea43511U, 0xbe6c7560bd75375aU,
  0xbe1da395bdb7e983U, 0xbd0c1fa1be7df954U, 0xbe26658fbc8c1fa1U, 0x3e338886bea20492U,
  0xbdec75603e0c1fa1U, 0xbde3b366be07bea4U, 0x3d0c1fa13d1da395U, 0x3ddaf16cbda6658fU,
  0xbc41d9523dd200c3U, 0x3e1d8093bd218a6fU, 0xbe299e28bdda147cU, 0xbe1976b6bda99e28U,
  0x3c813b8c3d894f45U, 0x3ce228353d9976b6U, 0x3d41d952be0d5921U, 0x3d9976b63df24fa6U,
  0x3db9c5993d724fa6U, 0x3df24fa6bd5200c3U, 0x3b813b8cbdfa635fU, 0x3d31b1e0bdc1d952U,
  0xbc41d9523cc1d952U, 0xbce22835bca18a6fU, 0xbdb9c5993de22835U, 0x3da99e28bd5200c3U,
  0xbde22835bb813b8cU, 0xbe156cda3d9162fdU, 0xbe054568bd894f45U, 0xbe622835bdc9ed0bU,
  0xbce22835be013b8cU, 0x3da18a6fbce22835U, 0x3ca18a6f3d41d952U, 0x3d5200c300000000U,
  0x3d31b1e000000000U, 0xbc013b8c3d218a6fU, 0x3d013b8cbda18a6fU, 0xbca18a6f3de22835U,
  0xbde22835be3dcf76U, 0xbda18a6f3d1162fdU, 0xbe41d9523c813b8cU, 0x3c013b8cbe299e28U,
  0xbe1162fdbdc9ed0bU, 0xbe6632113dda147cU, 0xbe6e45ca3d218a6fU, 0xbe9162fdbdd200c3U,
  0xbdb9c599be39c599U, 0xbd5200c33b813b8cU, 0x3b813b8c3dea3beeU, 0xbb813b8cbd622835U,
  0xbdfa635f3d31b1e0U, 0xbdb1b1e03e35bbbdU, 0x3e0d5921be663211U, 0x3d724fa63e0d5921U,
  0xbda18a6fbe8d5921U, 0xbe1162fdbdc1d952U, 0xbe560aa000000000U, 0xbe7e6d3cbeada804U,
  0xbce22835bd41d952U, 0xbe5a147c3d218a6fU, 0xbe7e6d3cbc013b8cU, 0xbe7e6d3cbe25944bU,
  0xbca18a6fbe1162fdU, 0xbdc1d9523d724fa6U, 0x3d31b1e03e31b1e0U, 0x3d894f453dda147cU,
  0xbd9162fd3ce22835U, 0xbdc1d9523d5200c3U, 0x3e45e32ebe854568U, 0x3df24fa63e2da804U,
  0xbd31b1e0bd894f45U, 0xbdc9ed0b3c013b8cU, 0xbdea3bee3d622835U, 0xbdea3beebe5a147cU,
  0xbda18a6fbe6e45caU, 0x3ce228353d218a6fU, 0x3d9976b6bca18a6fU, 0xbeb5bbbdbd31b1e0U,
  0xbd813b8cbe1976b6U, 0xbe9771c8be299e28U, 0xbd31b1e03d41d952U, 0x3e83407abe5200c3U,
  0xbdea3bee3d41d952U, 0xbd013b8cbd9162fdU, 0x3e724fa63db9c599U, 0xbe5200c33d813b8cU,
  0xbe6e45cabe622835U, 0x3e854568bd218a6fU, 0xbef04ab8bdc9ed0bU, 0xbd31b1e0be49ed0bU,
  0xbc013b8c3d894f45U, 0x3c41d952bca18a6fU, 0x3ea99e28bd9976b6U, 0xbd724fa63d013b8cU,
  0xbd9162fdbdc1d952U, 0xbd41d9523cc1d952U, 0xbd622835bd31b1e0U, 0xbe7e6d3cbce22835U,
  0xbe054568be094f45U, 0x3d013b8cbe663211U, 0x3b813b8c3e9b7ba4U, 0xbd813b8cbe49ed0bU,
  0xbd813b8c3dda147cU, 0x3e724fa63d622835U, 0xbe5200c3be49ed0bU, 0x3df24fa63e218a6fU,
  0x3d813b8cbdc1d952U, 0x3e83407abdc1d952U, 0x3ce22835bda99e28U, 0xbea38f5d3d622835U,
  0xbe765983be622835U, 0xbe83407abeada804U, 0xbe9976b6bcc1d952U, 0xbe013b8cbea38f5dU,
  0xbe874a57beb7c0abU, 0x3d9162fdbe094f45U, 0x3e1162fdbd9976b6U, 0xbe6e45cabdc1d952U,
  0xbeb3b6cfbde22835U, 0xbc013b8cbe25944bU, 0xbf003915beb3b6cfU, 0x3e5a147cbe094f45U,
  0x3dc9ed0b3db9c599U, 0x3e2da804bda18a6fU, 0x3e45e32ebda99e28U, 0xbc813b8c3d31b1e0U,
  0xbe013b8cbcc1d952U, 0x3ce22835bdd200c3U, 0xbb813b8cbd724fa6U, 0xbe3dcf763ca18a6fU,
  0x3ca18a6fbe622835U, 0x3e1976b6bd622835U, 0xbee42d233e31b1e0U, 0x3ce22835be31b1e0U,
  0xbe156cda3e094f45U, 0x3de228353da18a6fU, 0xbdea3beebe1d8093U, 0x3e7e6d3c3e765983U,
  0xbc813b8c3de22835U, 0xbd218a6f3e4df6e7U, 0x3dc1d952bc41d952U, 0x3cc1d952be8b5433U,
  0x3dc1d9523d9162fdU, 0xbc813b8c3d31b1e0U, 0x3da18a6f3e9162fdU, 0x3e6632113d1162fdU,
  0x3dc9ed0b3d218a6fU, 0xbd31b1e03dea3beeU, 0x3dc9ed0b3dea3beeU, 0x3d31b1e03e9b7ba4U,
  0x3dfa635fbda18a6fU, 0xbd41d952bd724fa6U, 0x3ca18a6f3d1162fdU, 0x3d9976b63dd200c3U,
  0xbb7b870a3cacecd7U, 0x3afb870abe504bd4U, 0xbe5630fe3da8febbU, 0xbd4c5db800000000U,
  0xbd859fbd3bbca547U, 0xbd5439f0be059fbdU, 0xbe2af5c9be15582eU, 0xbd7b870abd059fbdU,
  0xbe28febbbe01b1a1U, 0x3d916a123cbca547U, 0xbe3ca547bde7e07dU, 0x3b7b870abe798ffcU,
  0xbdf798eebc9d3466U, 0x3cacecd7bdcc5db8U, 0xbe059fbdbdc86f9cU, 0x3d0d7bf6bdacecd7U,
  0x3ccc5db83d1d3466U, 0xbcdc1629be32d201U, 0x3d1d3466bd34c90fU, 0xbcdc1629bcbca547U,
  0xbdcc5db8bbfb870aU, 0xbde7e07d3bfb870aU, 0x3c1d3466be5439f0U, 0x3cacecd7bdefbcb5U,
  0xbd3ca5473cfb870aU, 0xbc8d7bf6bdf3aad2U, 0xbdefbcb5bdb8b72bU, 0xbd63f261be03a8afU,
  0xbe03a8afbc5c1629U, 0xbdcc5db83c5c1629U, 0x3cdc1629bc7b870aU, 0xbd4481803c9d3466U,
  0x3c5c1629bdfb870aU, 0xbcdc1629bdb4c90fU, 0x3cbca547be15582eU, 0x3cebce993c8d7bf6U,
  0xbc1d3466bdd439f0U, 0xbd95582e3bbca547U, 0xbdefbcb5bcfb870aU, 0xbe0d7bf6be174f3cU,
  0xbdefbcb5bdc48180U, 0xbd5439f0be2af5c9U, 0xbe2ee3e5bbbca547U, 0x3c1d3466be19464aU,
  0xbdd04bd4bd6bce99U, 0x3d99464abd448180U, 0xbdd439f0bdb0daf3U, 0x3d25109ebda12282U,
  0xbd5439f0bcbca547U, 0x3dacecd7bdd439f0U, 0xbda5109ebc5c1629U, 0xbd916a12bde00445U,
  0xbdb4c90fbdacecd7U, 0xbd6bce993c1d3466U, 0xbc9d3466bc7b870aU, 0xbe2cecd7bd7b870aU,
  0xbd99464abc5c1629U, 0x3afb870abd0d7bf6U, 0xbdc48180bd4c5db8U, 0xbd448180be30daf3U,
  0xbe2af5c9bc5c1629U, 0x3dbca547bdd439f0U, 0xbdefbcb5bdff7526U, 0xbe231990U,
  0x3c3ca5473bbca547U, 0x3c5c1629bd81b1a1U, 0xbcbca547bd5c1629U, 0xbd5439f0bc9d3466U,
  0xbcebce993c1d3466U, 0xbda8febbbc7b870aU, 0xbcebce99bd916a12U, 0x3cbca547bc8d7bf6U,
  0x3d3ca547bc8d7bf6U, 0x3d34c90f3c1d3466U, 0xbcebce99bdb8b72bU, 0xbafb870abafb870aU,
  0x3d4c5db8bd99464aU, 0xbd059fbdbd1d3466U, 0xbcbca547bd81b1a1U, 0x3dbca547bd1d3466U,
  0xbd898dd9bd8d7bf6U, 0x3d6bce993dacecd7U, 0x3cebce99bcebce99U, 0xbd1d3466bdc09364U,
  0xbcfb870a3d6bce99U, 0x3d859fbdbafb870aU, 0xbdc093643d8d7bf6U, 0x3da5109e3d63f261U,
  0x3c5c1629bda8febbU, 0x3c8d7bf63d63f261U, 0x3c8d7bf6bafb870aU, 0xbdc48180bd059fbdU,
  0x3cebce99bd2cecd7U, 0x3cebce993d4c5db8U, 0xbd99464a3cebce99U, 0xbd34c90f3d5439f0U,
  0x3d95582ebcacecd7U, 0xbcacecd7be409364U, 0x3c3ca547bd25109eU, 0xbe1d3466bd2cecd7U,
  0x3d73aad2bc1d3466U, 0xbd5439f03d5c1629U, 0xbb7b870abe5c1629U, 0x3d2cecd7bd2cecd7U,
  0x3c7b870abd63f261U, 0x3d0d7bf6be75a1e0U, 0xbdcc5db8bd95582eU, 0xbde3f261be5e0d37U,
  0xbdfb870abd448180U, 0x3d1d3466bcacecd7U, 0xbe19464abd916a12U, 0x3dacecd73ddc1629U,
  0xbe38b72b3d1d3466U, 0x3b7b870a3db4c90fU, 0xbd34c90fbd15582eU, 0xbda122823cbca547U,
  0x3d7b870abd5439f0U, 0x3db4c90f3d73aad2U, 0x3d73aad2bd8d7bf6U, 0x3d7b870a3d2cecd7U,
  0xbd859fbd3c8d7bf6U, 0xbcebce99be059fbdU, 0x3dacecd73dacecd7U, 0xbd4c5db8bc9d3466U,
  0xbdb4c90fbe1b3d58U, 0xbd916a123cbca547U, 0x3d25109e3da12282U, 0x3d99464a3ddc1629U,
  0xbc9d3466be34c90fU, 0xbdd439f03d3ca547U, 0xbe34c90f3d81b1a1U, 0xbdc86f9cbda8febbU,
  0xbd3ca547bddc1629U, 0xbe0f7304be1d3466U, 0xbc9d34663d0d7bf6U, 0x3d1d3466bcfb870aU,
  0xbd859fbdbc1d3466U, 0xbda5109ebc1d3466U, 0x3d73aad2be28febbU, 0x3d9d34663d99464aU,
  0xbd1d3466bda5109eU, 0xbdcc5db8bda5109eU, 0xbdd04bd4bdf798eeU, 0xbdacecd7bd6bce99U,
  0xbd7dae90bd998b57U, 0xbd3aec6abd62fa80U, 0x3e62fa80bd8c314fU, 0x3e8a860ebd484671U,
  0x3cf054883e26e55eU, 0x3cbaec6a3da0385bU, 0x3e022dcabcbaec6aU, 0xbde9a784bbd5a079U,
  0x3e4846713dfdae90U, 0xbe3aec6abd705488U, 0xbe55a0793c55a079U, 0xbe238eddbd2d9262U,
  0x3c20385b3e484671U, 0xbddc4d7dbd05844cU, 0x3e1ce1d93d20385bU, 0xbe0c314f3d92de53U,
  0xbe73ab0abe948994U, 0xbe73ab0abe484671U, 0x3df7018cbe92de53U, 0x3e8a860ebe0c314fU,
  0xbd8c314f3da6e55eU, 0xbd2d92623d20385bU, 0xbd05844cbe30e8e4U, 0xbde9a7843d705488U,
  0xbd05844c3d2d9262U, 0xbed3f538be913312U, 0xbdc1996ebd12de53U, 0xbe12de53be85844cU,
  0x3d998b573e30e8e4U, 0xbe62fa80bdf7018cU, 0x3da6e55e3e0f87d1U, 0xbec344af3c85844cU,
  0xbc55a0793c20385bU, 0xbd484671be30e8e4U, 0xbe3e42ecbd705488U, 0xbdc1996ebb55a079U,
  0xbe2d9262bcbaec6aU, 0xbcf05488be198b57U, 0xbe30e8e4be2d9262U, 0xbdc84671bdf05488U,
  0xbe26e55ebda6e55eU, 0x3d62fa80bdf05488U, 0xbe3aec6abdf05488U, 0xbbd5a079be8c314fU,
  0xbe2a3be0bc20385bU, 0x3cd5a0793d92de53U, 0xbd62fa80be198b57U, 0x3d705488bd62fa80U,
  0xbdcef3753cf05488U, 0x3dd5a079be2d9262U, 0x3d05844cbe3aec6aU, 0x3d3aec6abd3aec6aU,
  0x3db43f663dfdae90U, 0x3bd5a0793d705488U, 0x3e3795e8be4ef375U, 0xbd20385b3e12de53U,
  0x3dfdae903e022dcaU, 0xbcbaec6abe913312U, 0xbdc1996ebe2d9262U, 0x3b55a079bd12de53U,
  0x3e2d9262bd20385bU, 0xbd2d92623d2d9262U, 0x3e08dacd3dcef375U, 0x3cbaec6abda0385bU,
  0xbdf05488be83d90bU, 0x3d62fa80bd484671U, 0xbe08dacdbd3aec6aU, 0x3e08dacd3cbaec6aU,
  0x3d05844cbd55a079U, 0xbcf054883cbaec6aU, 0x3da0385bbe7a580eU, 0x3df05488bdad9262U,
  0xbd3aec6a3e05844cU, 0xbe2a3be0be9ce1d9U, 0x3cf05488bda6e55eU, 0x3e26e55ebea6e55eU,
  0x3dc846713dc1996eU, 0xbe198b57bddc4d7dU, 0x3e238edd3e4b9cf3U, 0xbe41996ebe3aec6aU,
  0x3d12de53bd2d9262U, 0x3d55a079be30e8e4U, 0x3d55a0793e12de53U, 0xbb55a0793d484671U,
  0xbde2fa80bd8c314fU, 0xbd20385bbdcef375U, 0xbd62fa80be5249f7U, 0x3bd5a079bca0385bU,
  0xbca0385bbde2fa80U, 0x3de2fa80bd2d9262U, 0xbd7dae903d62fa80U, 0xbcbaec6abe3795e8U,
  0xbd8c314f3d3aec6aU, 0x3de9a784bd998b57U, 0xbd92de53be0c314fU, 0x3e238edd3ca0385bU,
  0xbda0385bbd20385bU, 0xbe30e8e4be7a580eU, 0xbe872f8dbea53a1eU, 0xbe12de53bd3aec6aU,
  0x3d55a0793ca0385bU, 0x3d3aec6a3d85844cU, 0x3d92de53be9b3698U, 0x3e238edd3d85844cU,
  0x3c20385b3e05844cU, 0x3c20385bbe8ddc90U, 0x3e05844cbe484671U, 0xbe198b57be5249f7U,
  0xbd20385b3d705488U, 0xbd8c314fbcbaec6aU, 0x3d55a0793e5249f7U, 0x3d2d9262be1ce1d9U,
  0xbd55a079be7dae90U, 0x3df7018c3ca0385bU, 0xbdf7018cbd3aec6aU, 0xbd3aec6abc85844cU,
  0xbcd5a079be12de53U, 0xbe3e42ecbe0f87d1U, 0xbd484671be343f66U, 0xbd2d9262bd8c314fU,
  0xbb55a0793d484671U, 0xbdfdae90be41996eU, 0x3d05844cbd12de53U, 0x3dbaec6abe5c4d7dU,
  0xbe20385bbcf05488U, 0xbd12de53be41996eU, 0x3d12de533dc84671U, 0x3b55a079bdf05488U,
  0x3e4b9cf33e0f87d1U, 0x3e1634d5beaf3da3U, 0x3dd5a0793ddc4d7dU, 0xbdc1996e3c55a079U,
  0xbbd5a079bd55a079U, 0xbd12de53bdad9262U, 0x3d05844cbe6cfe06U, 0xbe822dca3d92de53U,
  0xbd55a079bdf7018cU, 0x3e12de53bcd5a079U, 0xbea38edd3cbaec6aU, 0x3de9a784becb9cf3U,
  0xbd85844c3ca0385bU, 0x3bd5a0793da0385bU, 0xbddc4d7dbd85844cU, 0x3e0f87d13d2d9262U,
  0x3dc88b82bdf2c3d3U, 0x3ba8e145bddda7abU, 0xbe239a3b3cd31996U, 0xbe38b664be2e284fU,
  0x3ba8e145bdfd51e8U, 0xbdc88b82bba8e145U, 0xbdc88b82bd7d51e8U, 0xbdc88b82bdb36f59U,
  0xbde835bf3ca8e145U, 0xbd6835bf3e03effeU, 0xbdd31996be6d7cc9U, 0x3d893708bd9e5331U,
  0xbe03effebe093708U, 0xbe03effebca8e145U, 0xbcd319963da8e145U, 0xbd28e145bde835bfU,
  0x3dc88b823d7d51e8U, 0x3d6835bfbe990c27U, 0xbd3dfd6e3dbdfd6eU, 0xbe28e145bda8e145U,
  0x3c28e145bc28e145U, 0x3d3dfd6ebd6835bfU, 0xbcfd51e8be4dd28cU, 0xbd893708bd7d51e8U,
  0x3ba8e1453ba8e145U, 0x3dd31996bd3dfd6eU, 0xbe5da7abbe6d7cc9U, 0x3df2c3d3be7d51e8U,
  0x3c28e145bd531996U, 0xbdf2c3d33dc88b82U, 0x3c7d51e8bcd31996U, 0x3ca8e145be239a3bU,
  0xbd9e5331bca8e145U, 0xbc28e1453de835bfU, 0x3e0e7e12bde835bfU, 0x3e912197bdf2c3d3U,
  0x3d28e145be0e7e12U, 0x3cfd51e8bdb36f59U, 0x3df2c3d33d93c51cU, 0x3e4dd28c3cfd51e8U,
  0x3cd31996U, 0xbd6835bfbc7d51e8U, 0x3e28e1453d28e145U, 0xbddda7abbdd31996U,
  0x3cd319963e190c27U, 0xbc7d51e8be1e5331U, 0x3e5319963d3dfd6eU, 0xbd7d51e800000000U,
  0xbe093708U, 0xbd93c51c3dbdfd6eU, 0xbe83effe3dd31996U, 0xbe7d51e8bd9e5331U,
  0xbcfd51e8be239a3bU, 0xbe38b664be28e145U, 0xbe1e53313c28e145U, 0xbcfd51e8bd93c51cU,
  0xbda8e145be093708U, 0x3ba8e1453dc88b82U, 0xbd893708bea39a3bU, 0x3d9e53313d893708U,
  0xbe03effebe5da7abU, 0xbde835bf3c28e145U, 0xbe2e284fbe28e145U, 0xbd893708be5da7abU,
  0x3e0937083d893708U, 0xbba8e1453d893708U, 0xbdf2c3d33e1e5331U, 0xbca8e145bea39a3bU,
  0xbd28e1453e0e7e12U, 0xbddda7ab3cfd51e8U, 0xbd13c51c3dbdfd6eU, 0xbeb8b6643c7d51e8U,
  0x3c7d51e8bde835bfU, 0x3d3dfd6e3e5da7abU, 0xbe6d7cc9bebb59e9U, 0x3e62eeb53ba8e145U,
  0xbca8e145be239a3bU, 0xbe13c51c3d93c51cU, 0x3ba8e145be8e7e12U, 0xbca8e145be814c79U,
  0x3cfd51e83d28e145U, 0xbe38b664be093708U, 0x3ef0204e3cfd51e8U, 0x3ed07611bf278f83U,
  0xbd8937083e869383U, 0x3ca8e145bc28e145U, 0xbd9e53313cfd51e8U, 0xbeb36f59bc28e145U,
  0xbcfd51e83d93c51cU, 0xbe38b6643ddda7abU, 0xbeae284f3e190c27U, 0x3d893708bd9e5331U,
  0xbca8e1453e912197U, 0x3ba8e145U, 0x3e03effe3d13c51cU, 0xbe780add3ea8e145U,
  0xbda8e145bc28e145U, 0xbe093708bcfd51e8U, 0x3e531996bdfd51e8U, 0xbcfd51e83e093708U,
  0xbe28e145be434478U, 0xbe488b82be488b82U, 0xbd893708bd93c51cU, 0x3ddda7abbe28e145U,
  0xbe83effebddda7abU, 0xbcfd51e8be1e5331U, 0xbd5319963e5da7abU, 0xbda8e145bd28e145U,
  0xbe03effebba8e145U, 0x3e912197be6d7cc9U, 0xbda8e145bdb36f59U, 0xbcfd51e83df2c3d3U,
  0x3dd319963d13c51cU, 0x3d3dfd6e3db36f59U, 0x3cfd51e83e5da7abU, 0xbe780addbe093708U,
  0x3cfd51e8bddda7abU, 0x3ca8e145bd6835bfU, 0xbe4344783dd31996U, 0xbe03effe3d13c51cU,
  0xbd9e5331be6d7cc9U, 0x3d7d51e83d3dfd6eU, 0xbdf2c3d3bd7d51e8U, 0x3e190c273d6835bfU,
  0xbdf2c3d3be1e5331U, 0x3ddda7abbd13c51cU, 0xbe8e7e12be9668a1U, 0xbd893708bddda7abU,
  0x3e869383bcfd51e8U, 0x3d7d51e83da8e145U, 0x3e5da7ab3e190c27U, 0xbf224878U,
  0x3e28e1453e5da7abU, 0xbcd319963e0e7e12U, 0x3d7d51e83e780addU, 0xbdb36f593e13c51cU,
  0x3ca8e145bd3dfd6eU, 0x3ca8e1453e190c27U, 0xbd7d51e8bd7d51e8U, 0x3e4dd28c3e4dd28cU,
  0x3e62eeb53e0e7e12U, 0xbc28e1453e28e145U, 0xbdc88b82bc7d51e8U, 0xbe62eeb53d531996U,
  0x3d8976e23d2ef466U, 0x3cf9ef6cbd8976e2U, 0xbe5ab17f3e2ef466U, 0xbeb21430be5ab17fU,
  0x3d79ef6cbd60f115U, 0xbdaef4663bc7f2bdU, 0xbd15f60e3d8976e2U, 0xbe0976e2bd2ef466U,
  0xbdc7f2bdbd79ef6cU, 0xbbc7f2bd3d79ef6cU, 0xbd79ef6cbed791b4U, 0xbcf9ef6cbe03374cU,
  0xbe15f60ebe41b327U, 0xbe03374c3d95f60eU, 0xbc95f60ebc95f60eU, 0x3d2ef466be8976e2U,
  0x3d95f60e3e0976e2U, 0x3e41b327beaef466U, 0xbdaef466bd95f60eU, 0x3d15f60e3d2ef466U,
  0x3d2ef466bdbb7391U, 0x3c95f60e3bc7f2bdU, 0x3e47f2bdbe9c35a4U, 0x3dd471e93e22753aU,
  0xbda2753a00000000U, 0x3de0f115bd8976e2U, 0xbd79ef6cbe15f60eU, 0x3e03374cbe79ef6cU,
  0x3d2ef4663dd471e9U, 0x3daef4663df9ef6cU, 0x3e0976e23e2ef466U, 0x3e15f60e00000000U,
  0x3cc7f2bd00000000U, 0x3e6730ab3d60f115U, 0xbe73afd73e41b327U, 0xbda2753abe3b7391U,
  0x3c47f2bdbd79ef6cU, 0xbd15f60ebd47f2bdU, 0x3daef4663d15f60eU, 0x3e79ef6c3c95f60eU,
  0x3d15f60e3ded7041U, 0x3c47f2bd00000000U, 0x3e3533fbbe2ef466U, 0xbcc7f2bdbe1c35a4U,
  0x3da2753abd60f115U, 0xbda2753abcc7f2bdU, 0x3d60f115bbc7f2bdU, 0x3dc7f2bdbd8976e2U,
  0x3d47f2bdbcc7f2bdU, 0x3dd471e9bda2753aU, 0xbe0fb6783d8976e2U, 0xbdf9ef6cbd2ef466U,
  0xbdaef466be0976e2U, 0x3bc7f2bdbded7041U, 0xbe3b73913cc7f2bdU, 0xbe3533fb3d2ef466U,
  0xbe28b4d0be60f115U, 0x3c95f60e3d2ef466U, 0xbe60f115be3533fbU, 0x3e3533fbbdbb7391U,
  0xbd8976e2bd60f115U, 0x3bc7f2bd3d8976e2U, 0xbe1c35a4bde0f115U, 0x3e0976e2bd15f60eU,
  0x3cc7f2bd00000000U, 0x3d79ef6cbd15f60eU, 0x3cc7f2bd3e41b327U, 0x3e1c35a4beb853c6U,
  0xbdaef466bd8976e2U, 0xbc47f2bd3c95f60eU, 0x3d15f60eU, 0xbe41b327bcf9ef6cU,
  0x3d2ef4663c95f60eU, 0x3d60f1153dc7f2bdU, 0xbe15f60ebe8976e2U, 0x3e6730abbdaef466U,
  0xbd15f60e3e15f60eU, 0xbe73afd7bcc7f2bdU, 0x3e28b4d03ded7041U, 0xbc95f60ebe41b327U,
  0x3e28b4d03d2ef466U, 0xbd60f115bd95f60eU, 0x3d95f60e3da2753aU, 0x3d15f60ebeb533fbU,
  0x3c95f60e3c47f2bdU, 0xbd2ef466bd95f60eU, 0xbd95f60ebe0fb678U, 0xbebe935c3e2ef466U,
  0x3c47f2bdbd95f60eU, 0x3de0f11500000000U, 0xbe1c35a4bc95f60eU, 0x3ded7041bd60f115U,
  0xbe5471e93e03374cU, 0x3e47f2bd3c95f60eU, 0x3cc7f2bdbdc7f2bdU, 0x3d2ef4663d15f60eU,
  0xbc95f60e3d2ef466U, 0xbcc7f2bd3d79ef6cU, 0xbd2ef4663bc7f2bdU, 0x3e22753abe28b4d0U,
  0xbd79ef6cbda2753aU, 0xbcc7f2bdbdf9ef6cU, 0xbe73afd7bde0f115U, 0xbe0fb678bcf9ef6cU,
  0xbdbb7391be0976e2U, 0x3d8976e2bbc7f2bdU, 0xbe41b327bd47f2bdU, 0x3d15f60ebd95f60eU,
  0xbe3533fb3d2ef466U, 0xbc47f2bdbdc7f2bdU, 0xbdbb7391bdd471e9U, 0xbe0976e2bdd471e9U,
  0x3e0fb678bd95f60eU, 0xbdd471e93d95f60eU, 0x3e15f60e3bc7f2bdU, 0x3daef466bece3253U,
  0xbd95f60e3d47f2bdU, 0xbe0976e23da2753aU, 0xbc47f2bd3da2753aU, 0xbe3533fbbd79ef6cU,
  0xbdbb7391bdf9ef6cU, 0x3cf9ef6c3d79ef6cU, 0xbe3b7391be03374cU, 0x3e0fb6783cf9ef6cU,
  0xbbc7f2bd3ded7041U, 0xbd79ef6c3bc7f2bdU, 0xbc95f60ebe03374cU, 0xbe60f115bbc7f2bdU,
  0x3bc7f2bd3bc7f2bdU, 0xbe8fb6783e2ef466U, 0x3e28b4d03e0976e2U, 0xbc95f60ebf4662d8U,
  0x3c95f60e3e3b7391U, 0x3e2ef4663e15f60eU, 0x3e801781U, 0x3e1c35a43e3b7391U,
  0xbcf9ef6cbd60f115U, 0xbc95f60e3ded7041U, 0xbdbb73913d8976e2U, 0x3cc7f2bd3de0f115U,
  0x3df9ef6c3dbb7391U, 0x3df9ef6c3c47f2bdU, 0xbcf9ef6c3d15f60eU, 0xbe73afd73e865717U,
  0xbd5d21babd936bd2U, 0xbe60d1393b6bdfb6U, 0xbd2229cdU, 0xbd2229cdbcebdfb6U,
  0x3d4e63bf3e136bd2U, 0x3d3fa5c43c30e7c8U, 0xbd30e7c8bd6bdfb6U, 0x3d3fa5c4bdfa9db1U,
  0xbd136bd23c30e7c8U, 0xbe0c0cd43d6bdfb6U, 0x3d4e63bfbe3bf645U, 0x3bebdfb63e171b50U,
  0xbb6bdfb63debdfb6U, 0xbd6bdfb63d04add6U, 0x3cb0e7c8bdb846c6U, 0xbe885d55bd8c0cd4U,
  0xbc30e7c83e00fe57U, 0x3d84add63db0e7c8U, 0xbc6bdfb63db846c6U, 0x3d84add6bd04add6U,
  0x3d4e63bf3ddd21baU, 0xbd7a9db13d04add6U, 0xbcb0e7c8bd2229cdU, 0x3bebdfb63c30e7c8U,
  0xbd6bdfb6U, 0xbd2229cd3debdfb6U, 0xbd7a9db1bddd21baU, 0x3e136bd2bbebdfb6U,
  0x3d8c0cd4bc6bdfb6U, 0xbdd5c2bdbb6bdfb6U, 0x3d30e7c83c30e7c8U, 0x3d8c0cd43d9acacfU,
  0x3e0fbc533d6bdfb6U, 0x3d5d21ba3db846c6U, 0xbda229cd3cb0e7c8U, 0x3c6bdfb6bd8c0cd4U,
  0x3dd5c2bd3cb0e7c8U, 0x3e00fe573db0e7c8U, 0x3dc704c1U, 0xbd2229cd3dd5c2bdU,
  0xbc936bd23c30e7c8U, 0x3e0c0cd43e4ab440U, 0xbde480b8bda988cbU, 0x3e1e7a4ebc30e7c8U,
  0x3e349747bcb0e7c8U, 0xbdbfa5c43dd5c2bdU, 0xbd8c0cd4bcb0e7c8U, 0x3db846c63c6bdfb6U,
  0xbdebdfb6be2229cdU, 0xbe171b503e349747U, 0x3e085d553d30e7c8U, 0x3d8c0cd4bdb0e7c8U,
  0xbc936bd2be4e63bfU, 0xbe2988cbbdb846c6U, 0xbe2d38493e82d617U, 0xbe55c2bdbd84add6U,
  0xbda229cdbe4704c1U, 0xbd84add63dd5c2bdU, 0x3d4e63bf3e349747U, 0xbd7a9db13d8c0cd4U,
  0xbe2d3849bdd5c2bdU, 0x3e4ab440bc30e7c8U, 0xbe1e7a4ebe60d139U, 0xbcebdfb6bcb0e7c8U,
  0xbd04add6be2229cdU, 0xbe6480b83e435542U, 0x3cb0e7c83dfa9db1U, 0x3c6bdfb6be3fa5c4U,
  0xbd04add6bcce63bfU, 0xbe52133ebe30e7c8U, 0xbd5d21ba3e8de493U, 0x3b6bdfb6bdb0e7c8U,
  0xbe25d94cbdebdfb6U, 0x3b6bdfb63e52133eU, 0x3cce63bf3da988cbU, 0xbcce63bf3e136bd2U,
  0xbddd21babe1e7a4eU, 0x3cebdfb6bcb0e7c8U, 0xbc936bd2be2229cdU, 0xbe7a9db1bdc704c1U,
  0xbd30e7c8be1e7a4eU, 0xbe6f8f343d30e7c8U, 0xbe04add63e04add6U, 0xbd30e7c8be4ab440U,
  0x3d9acacf3c936bd2U, 0xbe3bf645bb6bdfb6U, 0x3b6bdfb63e6bdfb6U, 0xbd30e7c8bd936bd2U,
  0xbdb0e7c83d136bd2U, 0xbd04add63dce63bfU, 0x3d2229cdbe0c0cd4U, 0x3d84add63e936bd2U,
  0xbd136bd2be954391U, 0x3d2229cdbd9acacfU, 0xbe7a9db1be733eb3U, 0xbe0fbc53be76ee32U,
  0x3bebdfb63c936bd2U, 0x3d6bdfb6be04add6U, 0x3d6bdfb6bd7a9db1U, 0x3df33eb3bd30e7c8U,
  0x3d2229cd3e2988cbU, 0x3debdfb63d30e7c8U, 0xbc6bdfb6be76ee32U, 0xbd136bd2bc936bd2U,
  0x3bebdfb63da229cdU, 0x3d8c0cd4be00fe57U, 0xbe84add63d30e7c8U, 0x3d4e63bfbdf33eb3U,
  0x3bebdfb63db846c6U, 0xbd8c0cd43cebdfb6U, 0x3dd5c2bdbc6bdfb6U, 0xbd3fa5c43e1e7a4eU,
  0xbcb0e7c83d136bd2U, 0x3d4e63bfbeaf1009U, 0x3d5d21babd8c0cd4U, 0x3c936bd2bd04add6U,
  0xbd136bd23e0c0cd4U, 0x3db0e7c83db0e7c8U, 0xbd3fa5c4be349747U, 0xbdb0e7c8bc30e7c8U,
  0xbb6bdfb6bbebdfb6U, 0x3d3fa5c43c936bd2U, 0xbe8fbc533dd5c2bdU, 0xbd5d21babe30e7c8U,
  0xbcb0e7c83c6bdfb6U, 0x3d30e7c83d30e7c8U, 0x3da229cdbcb0e7c8U, 0x3df33eb3U,
  0xbd5d21ba3cebdfb6U, 0xbda988cbbeea07f6U, 0x3e171b50be6bdfb6U, 0x3e30e7c8be0c0cd4U,
